<pad>	0
<unk>	0
<bos>	0
<eos>	0
<user>	0
<assistant>	0
<system>	0
<sep>	0
一个	-0
我们	-1
可以	-2
中国	-3
孩子	-4
学生	-5
发展	-6
就是	-7
自己	-8
教育	-9
没有	-10
进行	-11
问题	-12
研究	-13
什么	-14
学习	-15
",	-16
主要	-17
社会	-18
国家	-19
如果	-20
经济	-21
需要	-22
一种	-23
可能	-24
工作	-25
时间	-26
这个	-27
企业	-28
通过	-29
生活	-30
重要	-31
出现	-32
影响	-33
因为	-34
技术	-35
他们	-36
管理	-37
所以	-38
不同	-39
的人	-40
这些	-41
很多	-42
使用	-43
中的	-44
发生	-45
一些	-46
治疗	-47
。"	-48
文化	-49
人的	-50
世界	-51
但是	-52
方法	-53
"。	-54
方面	-55
系统	-56
能力	-57
历史	-58
不是	-59
教学	-60
对于	-61
这样	-62
情况	-63
市场	-64
时候	-65
这种	-66
▁(	-67
开始	-68
过程	-69
患者	-70
大的	-71
活动	-72
成为	-73
部分	-74
..	-75
也是	-76
环境	-77
一般	-78
已经	-79
不能	-80
以及	-81
作用	-82
发现	-83
的是	-84
因此	-85
作为	-86
一定	-87
导致	-88
我国	-89
由于	-90
同时	-91
方式	-92
美国	-93
第一	-94
大学	-95
认为	-96
科学	-97
公司	-98
都是	-99
安全	-100
知识	-101
大家	-102
或者	-103
自己的	-104
疾病	-105
具有	-106
数据	-107
要求	-108
非常	-109
产生	-110
:"	-111
那么	-112
如何	-113
信息	-114
上的	-115
▁在	-116
),	-117
健康	-118
其他	-119
关系	-120
好的	-121
形成	-122
根据	-123
▁"	-124
原因	-125
组织	-126
比较	-127
现在	-128
存在	-129
基础	-130
功能	-131
到了	-132
基本	-133
学校	-134
包括	-135
设计	-136
引起	-137
人们	-138
提高	-139
专业	-140
注意	-141
选择	-142
的一	-143
还是	-144
教师	-145
内容	-146
能够	-147
这一	-148
造成	-149
应该	-150
了解	-151
人民	-152
行为	-153
自然	-154
生产	-155
的时候	-156
症状	-157
有的	-158
知道	-159
老师	-160
这是	-161
为了	-162
网络	-163
▁一	-164
来的	-165
分析	-166
而且	-167
政府	-168
其中	-169
细胞	-170
产品	-171
目前	-172
规定	-173
必须	-174
服务	-175
甚至	-176
投资	-177
相关	-178
容易	-179
表现	-180
增加	-181
时期	-182
之后	-183
之间	-184
城市	-185
传统	-186
家长	-187
宝宝	-188
提供	-189
控制	-190
标准	-191
in	-192
性的	-193
各种	-194
结构	-195
年的	-196
建设	-197
因素	-198
应用	-199
心理	-200
艺术	-201
来说	-202
保护	-203
精神	-204
其实	-205
地区	-206
之一	-207
身体	-208
严重	-209
运动	-210
建筑	-211
人类	-212
资源	-213
随着	-214
还有	-215
第二	-216
有效	-217
处理	-218
,"	-219
个人	-220
er	-221
价值	-222
不仅	-223
儿童	-224
不断	-225
实现	-226
特别	-227
工程	-228
培养	-229
变化	-230
法律	-231
许多	-232
国际	-233
水平	-234
直接	-235
利用	-236
正常	-237
就会	-238
进入	-239
思想	-240
虽然	-241
实际	-242
只有	-243
中心	-244
当时	-245
检查	-246
关于	-247
时代	-248
人员	-249
以下	-250
地方	-251
计算	-252
阶段	-253
条件	-254
他的	-255
建立	-256
提出	-257
目标	-258
是否	-259
感染	-260
家庭	-261
理论	-262
解决	-263
有关	-264
现代	-265
政策	-266
项目	-267
起来	-268
金融	-269
一样	-270
今天	-271
主义	-272
全国	-273
物质	-274
以上	-275
日本	-276
达到	-277
结果	-278
)。	-279
比如	-280
女性	-281
不会	-282
过程中	-283
风险	-284
开发	-285
质量	-286
课程	-287
的大	-288
两个	-289
首先	-290
父母	-291
才能	-292
增长	-293
神经	-294
专家	-295
多的	-296
▁a	-297
怎么	-298
世纪	-299
孩子的	-300
长期	-301
语言	-302
帮助	-303
劳动	-304
行业	-305
所有	-306
不要	-307
是在	-308
食物	-309
了一	-310
作者	-311
形式	-312
是一个	-313
介绍	-314
的发展	-315
北京	-316
民族	-317
材料	-318
改革	-319
习惯	-320
单位	-321
全球	-322
不可	-323
理解	-324
常见	-325
明显	-326
大量	-327
人体	-328
称为	-329
现象	-330
制度	-331
on	-332
机构	-333
减少	-334
模式	-335
获得	-336
阅读	-337
特点	-338
一直	-339
新的	-340
生命	-341
程度	-342
需求	-343
具体	-344
采用	-345
产业	-346
的问题	-347
综合	-348
从而	-349
是一种	-350
简单	-351
受到	-352
意义	-353
认识	-354
药物	-355
结合	-356
▁s	-357
为什么	-358
效果	-359
▁c	-360
政治	-361
重要的	-362
病毒	-363
是一	-364
无法	-365
营养	-366
关键	-367
生物	-368
领域	-369
▁,	-370
代表	-371
的重要	-372
得到	-373
意识	-374
也有	-375
这里	-376
完成	-377
%,	-378
并且	-379
一下	-380
关注	-381
幼儿	-382
经过	-383
超过	-384
学生的	-385
实践	-386
任何	-387
是指	-388
完全	-389
医院	-390
改变	-391
属于	-392
银行	-393
决定	-394
消费	-395
合同	-396
表示	-397
责任	-398
这样的	-399
我们的	-400
往往	-401
创新	-402
都有	-403
积极	-404
不同的	-405
工业	-406
来越	-407
课堂	-408
范围	-409
分为	-410
成功	-411
尤其	-412
价格	-413
持续	-414
越来越	-415
状态	-416
皇帝	-417
第三	-418
多数	-419
目的	-420
设备	-421
及时	-422
最后	-423
经常	-424
以后	-425
朋友	-426
体系	-427
左右	-428
预防	-429
促进	-430
降低	-431
保持	-432
...	-433
an	-434
国内	-435
有些	-436
▁二	-437
子宫	-438
妈妈	-439
、"	-440
一次	-441
土地	-442
交易	-443
的事	-444
污染	-445
一步	-446
避免	-447
看到	-448
实施	-449
不过	-450
一起	-451
哪些	-452
部门	-453
然后	-454
通常	-455
独立	-456
正确	-457
血管	-458
生长	-459
发育	-460
▁t	-461
en	-462
用于	-463
显示	-464
并不	-465
创造	-466
)、	-467
智能	-468
临床	-469
at	-470
空间	-471
只是	-472
战争	-473
按照	-474
除了	-475
明确	-476
实验	-477
联网	-478
希望	-479
丰富	-480
然而	-481
的情况	-482
规模	-483
成本	-484
东西	-485
它们	-486
逐渐	-487
重点	-488
之前	-489
蛋白	-490
共同	-491
作品	-492
都会	-493
经验	-494
相对	-495
确定	-496
中华	-497
反应	-498
十分	-499
发病	-500
发展的	-501
整个	-502
建议	-503
真正	-504
生的	-505
ar	-506
考试	-507
》,	-508
科技	-509
保险	-510
文章	-511
接受	-512
学院	-513
计划	-514
食品	-515
年来	-516
的影响	-517
期间	-518
电子	-519
如此	-520
操作	-521
下面	-522
故事	-523
它的	-524
▁《	-525
参与	-526
肿瘤	-527
当然	-528
汽车	-529
文明	-530
下降	-531
高的	-532
化的	-533
思维	-534
也会	-535
稳定	-536
以来	-537
全面	-538
压力	-539
中央	-540
喜欢	-541
经营	-542
个月	-543
有一	-544
饮食	-545
的话	-546
带来	-547
▁b	-548
数学	-549
古代	-550
也不	-551
申请	-552
动物	-553
组成	-554
出了	-555
概念	-556
的高	-557
英国	-558
核心	-559
支持	-560
的主要	-561
也就是	-562
农业	-563
更加	-564
交通	-565
同学	-566
"、"	-567
重视	-568
危害	-569
自身	-570
最终	-571
成长	-572
方向	-573
原则	-574
文学	-575
or	-576
▁d	-577
手术	-578
兴趣	-579
教授	-580
感觉	-581
每天	-582
小学	-583
开展	-584
植物	-585
掌握	-586
免疫	-587
而是	-588
准备	-589
为主	-590
合作	-591
成了	-592
保证	-593
出的	-594
考虑	-595
特征	-596
观察	-597
后的	-598
年代	-599
▁【	-600
统一	-601
应当	-602
报告	-603
不足	-604
%。	-605
进一步	-606
等等	-607
年龄	-608
样的	-609
刺激	-610
农村	-611
血压	-612
皮肤	-613
▁m	-614
普通	-615
出来	-616
疼痛	-617
充分	-618
人口	-619
制造	-620
未来	-621
你的	-622
针对	-623
每个	-624
的一个	-625
收入	-626
al	-627
来看	-628
职业	-629
面积	-630
es	-631
指导	-632
体的	-633
所谓	-634
来自	-635
合理	-636
说明	-637
提升	-638
的最	-639
取得	-640
分泌	-641
速度	-642
情绪	-643
呼吸	-644
措施	-645
早期	-646
▁-	-647
医学	-648
货币	-649
卫生	-650
是什么	-651
一定要	-652
上海	-653
不得	-654
思考	-655
小时	-656
处于	-657
空气	-658
只要	-659
音乐	-660
行政	-661
领导	-662
的原因	-663
后来	-664
自我	-665
it	-666
资金	-667
不少	-668
交流	-669
另外	-670
例如	-671
执行	-672
死亡	-673
的一种	-674
ic	-675
传播	-676
的方法	-677
觉得	-678
训练	-679
生素	-680
资产	-681
程序	-682
来源	-683
他们的	-684
加强	-685
英语	-686
有人	-687
国的	-688
互联网	-689
于是	-690
有了	-691
分别	-692
的时间	-693
自由	-694
数量	-695
那些	-696
缺乏	-697
特殊	-698
竞争	-699
学科	-700
者的	-701
生态	-702
业务	-703
复杂	-704
著名	-705
参加	-706
三个	-707
之间的	-708
运用	-709
下的	-710
不到	-711
▁p	-712
战略	-713
▁r	-714
数字	-715
无论	-716
一定的	-717
内的	-718
▁。	-719
广泛	-720
资料	-721
商业	-722
位置	-723
系列	-724
力的	-725
is	-726
能源	-727
革命	-728
机会	-729
调整	-730
继续	-731
调查	-732
多种	-733
几个	-734
公元	-735
大多数	-736
类型	-737
用户	-738
不良	-739
医疗	-740
采取	-741
两种	-742
满足	-743
相当	-744
只能	-745
法院	-746
糖尿	-747
化学	-748
根本	-749
le	-750
现实	-751
接触	-752
表达	-753
地址	-754
激素	-755
平台	-756
糖尿病	-757
尤其是	-758
中国的	-759
地位	-760
的小	-761
困难	-762
慢性	-763
语文	-764
规律	-765
有着	-766
人才	-767
障碍	-768
日常	-769
本身	-770
保障	-771
的作用	-772
▁三	-773
事实	-774
解释	-775
用的	-776
美元	-777
必要	-778
医生	-779
过去	-780
角度	-781
评价	-782
面对	-783
平均	-784
快速	-785
as	-786
方案	-787
手段	-788
量的	-789
多少	-790
而言	-791
成绩	-792
区域	-793
正在	-794
特别是	-795
主要是	-796
▁从	-797
规范	-798
定的	-799
几乎	-800
在于	-801
经历	-802
农民	-803
主任	-804
基因	-805
异常	-806
规划	-807
发挥	-808
面的	-809
工具	-810
人工	-811
统计	-812
方面的	-813
联系	-814
增强	-815
任务	-816
学会	-817
子的	-818
趋势	-819
检测	-820
下来	-821
指出	-822
机制	-823
▁原	-824
记载	-825
温度	-826
的基础	-827
基金	-828
生活中	-829
血液	-830
开放	-831
可能会	-832
对象	-833
太阳	-834
大部分	-835
。(	-836
更多	-837
证明	-838
游戏	-839
的主	-840
联合	-841
集中	-842
拥有	-843
资本	-844
很多人	-845
引导	-846
商品	-847
位于	-848
表明	-849
判断	-850
发布	-851
每年	-852
良好的	-853
适应	-854
优势	-855
另一	-856
利于	-857
病人	-858
引发	-859
常见的	-860
坚持	-861
二十	-862
脂肪	-863
诊断	-864
力量	-865
符合	-866
毕业	-867
先生	-868
办法	-869
地球	-870
利益	-871
权利	-872
文字	-873
的孩子	-874
也可以	-875
运行	-876
公共	-877
欧洲	-878
就可以	-879
▁中国	-880
体现	-881
学家	-882
关节	-883
适合	-884
使得	-885
计算机	-886
的新	-887
宫颈	-888
改善	-889
状况	-890
事件	-891
吸收	-892
特色	-893
努力	-894
危险	-895
一旦	-896
▁这	-897
、《	-898
分钟	-899
出血	-900
的方式	-901
自主	-902
全部	-903
文件	-904
西方	-905
小编	-906
内部	-907
整体	-908
▁n	-909
做好	-910
是不	-911
恢复	-912
软件	-913
负责	-914
物理	-915
普遍	-916
让孩子	-917
et	-918
这么	-919
难以	-920
构成	-921
贷款	-922
维生素	-923
即使	-924
比例	-925
婴儿	-926
到底	-927
并不是	-928
的研究	-929
很大	-930
怎样	-931
意思	-932
销售	-933
最大的	-934
成立	-935
推动	-936
ac	-937
委员	-938
犯罪	-939
最高	-940
时的	-941
及其	-942
有所	-943
性和	-944
一年	-945
分类	-946
怀孕	-947
深入	-948
观点	-949
房屋	-950
效率	-951
分布	-952
区别	-953
制作	-954
错误	-955
部位	-956
里的	-957
理念	-958
少年	-959
天下	-960
依据	-961
限制	-962
作文	-963
强调	-964
我的	-965
此外	-966
意见	-967
探索	-968
可见	-969
历史上	-970
迅速	-971
机器	-972
防止	-973
清楚	-974
记忆	-975
作业	-976
智慧	-977
讨论	-978
相互	-979
什么是	-980
▁l	-981
出生	-982
素质	-983
物的	-984
财产	-985
▁我们	-986
含有	-987
做到	-988
了一个	-989
重大	-990
胎儿	-991
是由	-992
年前	-993
背景	-994
▁本	-995
媒体	-996
年人	-997
中医	-998
▁▁	-999
的历史	-1000
相应	-1001
垃圾	-1002
自动	-1003
平衡	-1004
细菌	-1005
会有	-1006
度的	-1007
就业	-1008
相同	-1009
军事	-1010
还要	-1011
更是	-1012
的地方	-1013
记录	-1014
工艺	-1015
今年	-1016
曾经	-1017
睡眠	-1018
男性	-1019
告诉	-1020
民间	-1021
面临	-1022
记者	-1023
完善	-1024
同样	-1025
一点	-1026
设置	-1027
氧化	-1028
手机	-1029
涉及	-1030
▁如果	-1031
道德	-1032
癌症	-1033
消化	-1034
上升	-1035
纤维	-1036
的基本	-1037
实际上	-1038
优秀	-1039
旅游	-1040
有一个	-1041
员工	-1042
情感	-1043
he	-1044
表面	-1045
指标	-1046
主动	-1047
德国	-1048
相比	-1049
问题的	-1050
读书	-1051
成熟	-1052
生存	-1053
情况下	-1054
地产	-1055
说的	-1056
进行了	-1057
以前	-1058
当前	-1059
周期	-1060
双方	-1061
定义	-1062
行的	-1063
客户	-1064
有限	-1065
支付	-1066
正式	-1067
股票	-1068
文地址	-1069
总结	-1070
变得	-1071
具备	-1072
差异	-1073
生理	-1074
会议	-1075
反映	-1076
是最	-1077
补充	-1078
培训	-1079
购买	-1080
贸易	-1081
前列	-1082
规则	-1083
肌肉	-1084
严格	-1085
推进	-1086
周围	-1087
》、《	-1088
月经	-1089
观念	-1090
危机	-1091
循环	-1092
病的	-1093
当地	-1094
母亲	-1095
伤害	-1096
是因为	-1097
ro	-1098
从事	-1099
心脏	-1100
基于	-1101
制定	-1102
绿色	-1103
各个	-1104
之外	-1105
机关	-1106
破坏	-1107
最好	-1108
动作	-1109
技能	-1110
形象	-1111
学术	-1112
炎症	-1113
仍然	-1114
居民	-1115
出现了	-1116
分享	-1117
性能	-1118
体验	-1119
损伤	-1120
大脑	-1121
百姓	-1122
颜色	-1123
阴道	-1124
损害	-1125
行动	-1126
到的	-1127
事业	-1128
准确	-1129
学者	-1130
如今	-1131
就要	-1132
代谢	-1133
相信	-1134
事情	-1135
真实	-1136
施工	-1137
科学家	-1138
▁原文地址	-1139
可是	-1140
事故	-1141
急性	-1142
最大	-1143
信号	-1144
之中	-1145
高考	-1146
统治	-1147
教育的	-1148
人物	-1149
宣传	-1150
学的	-1151
某些	-1152
距离	-1153
ion	-1154
并没有	-1155
型的	-1156
常常	-1157
出版	-1158
感受	-1159
损失	-1160
承担	-1161
还会	-1162
一位	-1163
案件	-1164
加工	-1165
突出	-1166
企业的	-1167
成分	-1168
葡萄	-1169
很难	-1170
设施	-1171
营销	-1172
小的	-1173
体育	-1174
卵巢	-1175
进步	-1176
网站	-1177
印度	-1178
成果	-1179
十二	-1180
感到	-1181
一切	-1182
动力	-1183
意味	-1184
前列腺	-1185
分子	-1186
移动	-1187
的工作	-1188
发表	-1189
有时	-1190
评估	-1191
引起的	-1192
至今	-1193
▁我	-1194
人在	-1195
公里	-1196
室内	-1197
创作	-1198
的生活	-1199
如下	-1200
治理	-1201
尽管	-1202
""	-1203
诉讼	-1204
乳腺	-1205
是中国	-1206
可以说	-1207
遗传	-1208
含量	-1209
年轻	-1210
想要	-1211
在中国	-1212
高度	-1213
原理	-1214
el	-1215
孩子们	-1216
就有	-1217
是有	-1218
体内	-1219
协议	-1220
理想	-1221
让学生	-1222
连接	-1223
追求	-1224
种植	-1225
有哪些	-1226
的教育	-1227
元素	-1228
书法	-1229
房地产	-1230
父亲	-1231
各地	-1232
期的	-1233
高血压	-1234
参考	-1235
军队	-1236
都不	-1237
适当	-1238
ing	-1239
高校	-1240
很大的	-1241
的能力	-1242
校园	-1243
更多的	-1244
世界上	-1245
土壤	-1246
类似	-1247
博物	-1248
严重的	-1249
最近	-1250
结束	-1251
认知	-1252
王朝	-1253
▁的	-1254
st	-1255
有机	-1256
安排	-1257
此时	-1258
团队	-1259
转移	-1260
重新	-1261
机械	-1262
放在	-1263
第四	-1264
调节	-1265
道路	-1266
而不	-1267
博士	-1268
费用	-1269
环节	-1270
法国	-1271
最早	-1272
主题	-1273
完整	-1274
会计	-1275
。《	-1276
近年来	-1277
能量	-1278
的学习	-1279
在这	-1280
正是	-1281
第一个	-1282
义务	-1283
传染	-1284
新闻	-1285
也就	-1286
蛋白质	-1287
呈现	-1288
鼓励	-1289
收益	-1290
别人	-1291
真的	-1292
黄金	-1293
的过程	-1294
逐步	-1295
说法	-1296
咨询	-1297
考生	-1298
产生的	-1299
器官	-1300
都在	-1301
多个	-1302
策略	-1303
▁o	-1304
主体	-1305
天然	-1306
安装	-1307
电视	-1308
三年	-1309
系统的	-1310
病情	-1311
肯定	-1312
矛盾	-1313
大量的	-1314
答案	-1315
病变	-1316
有很多	-1317
报道	-1318
美术	-1319
至少	-1320
▁据	-1321
试验	-1322
ip	-1323
抑制	-1324
国家的	-1325
形态	-1326
患者的	-1327
所有的	-1328
疾病的	-1329
成人	-1330
由此	-1331
以为	-1332
想象	-1333
维护	-1334
财政	-1335
找到	-1336
就能	-1337
加上	-1338
金属	-1339
人群	-1340
供应	-1341
在此	-1342
出口	-1343
态度	-1344
re	-1345
发达	-1346
锻炼	-1347
投入	-1348
品牌	-1349
静脉	-1350
让人	-1351
平时	-1352
沟通	-1353
意味着	-1354
▁f	-1355
有效的	-1356
国民	-1357
论文	-1358
独特	-1359
尽量	-1360
眼睛	-1361
表现为	-1362
co	-1363
他人	-1364
标志	-1365
反复	-1366
品种	-1367
连续	-1368
详细	-1369
的事情	-1370
大小	-1371
高中	-1372
总是	-1373
多年	-1374
遇到	-1375
宇宙	-1376
性质	-1377
练习	-1378
强的	-1379
十年	-1380
这就是	-1381
债务	-1382
....	-1383
其次	-1384
大约	-1385
▁当	-1386
不好	-1387
途径	-1388
值得	-1389
委员会	-1390
的内容	-1391
id	-1392
》(	-1393
少数	-1394
令人	-1395
电池	-1396
可能是	-1397
实行	-1398
社会主义	-1399
环保	-1400
本质	-1401
?"	-1402
过敏	-1403
利率	-1404
扩大	-1405
给予	-1406
蒙古	-1407
出来的	-1408
的前	-1409
局部	-1410
最为	-1411
电脑	-1412
养老	-1413
似乎	-1414
第一次	-1415
写作	-1416
教材	-1417
认真	-1418
当中	-1419
监管	-1420
固定	-1421
▁g	-1422
变成	-1423
必然	-1424
工资	-1425
哲学	-1426
幼儿园	-1427
的情况下	-1428
当事	-1429
方便	-1430
注重	-1431
的不	-1432
有利于	-1433
▁)	-1434
是对	-1435
有什么	-1436
继承	-1437
上述	-1438
抑郁	-1439
风格	-1440
整理	-1441
其它	-1442
儿子	-1443
所在	-1444
地理	-1445
佛教	-1446
色彩	-1447
都要	-1448
被称为	-1449
妊娠	-1450
登记	-1451
每一个	-1452
am	-1453
维持	-1454
的关系	-1455
清朝	-1456
是以	-1457
并非	-1458
ch	-1459
很容易	-1460
集体	-1461
专利	-1462
投资者	-1463
发作	-1464
过度	-1465
看看	-1466
ap	-1467
产权	-1468
平方	-1469
动脉	-1470
气候	-1471
图片	-1472
共和	-1473
里面	-1474
专门	-1475
突然	-1476
--	-1477
▁对于	-1478
失去	-1479
疫情	-1480
挑战	-1481
巨大	-1482
纪念	-1483
就像	-1484
再次	-1485
甲状	-1486
体重	-1487
▁大	-1488
层次	-1489
句话	-1490
的水	-1491
博物馆	-1492
运输	-1493
客观	-1494
一是	-1495
妇女	-1496
逻辑	-1497
法的	-1498
红色	-1499
不管	-1500
蔬菜	-1501
律师	-1502
名字	-1503
年级	-1504
和谐	-1505
▁而	-1506
中学	-1507
消费者	-1508
中有	-1509
传统的	-1510
则是	-1511
ed	-1512
青少年	-1513
成的	-1514
"(	-1515
测试	-1516
学习的	-1517
紧张	-1518
曹操	-1519
展示	-1520
包含	-1521
确实	-1522
全身	-1523
先进	-1524
人生	-1525
的发生	-1526
卵管	-1527
ol	-1528
突破	-1529
贡献	-1530
发动	-1531
输卵管	-1532
甲状腺	-1533
指数	-1534
不知	-1535
南京	-1536
不知道	-1537
▁对	-1538
加入	-1539
成就	-1540
也要	-1541
摄入	-1542
会出现	-1543
身份	-1544
它是	-1545
流行	-1546
文化的	-1547
证据	-1548
四个	-1549
长时间	-1550
食用	-1551
成员	-1552
▁第一	-1553
孕妇	-1554
以上的	-1555
文物	-1556
吸引	-1557
的同时	-1558
万人	-1559
》。	-1560
不再	-1561
较大	-1562
模型	-1563
巨大的	-1564
▁有	-1565
带来的	-1566
大多	-1567
▁新	-1568
描述	-1569
山东	-1570
不孕	-1571
社会的	-1572
融资	-1573
家族	-1574
推荐	-1575
是个	-1576
的学生	-1577
明朝	-1578
让我们	-1579
厘米	-1580
的症状	-1581
ad	-1582
加重	-1583
直到	-1584
因而	-1585
足够	-1586
部的	-1587
显著	-1588
集团	-1589
本文	-1590
一致	-1591
国务	-1592
更好	-1593
正确的	-1594
丰富的	-1595
深刻	-1596
长的	-1597
充满	-1598
声音	-1599
那个	-1600
流动	-1601
一段	-1602
加快	-1603
课题	-1604
缓解	-1605
生育	-1606
当时的	-1607
转变	-1608
而不是	-1609
预测	-1610
生殖	-1611
相关的	-1612
▁首先	-1613
▁第二	-1614
性格	-1615
融合	-1616
精子	-1617
用来	-1618
罗斯	-1619
很少	-1620
较为	-1621
添加	-1622
助于	-1623
现场	-1624
ct	-1625
究竟	-1626
防治	-1627
▁w	-1628
依然	-1629
家的	-1630
技巧	-1631
定位	-1632
密切	-1633
尊重	-1634
感冒	-1635
失败	-1636
良好	-1637
工作的	-1638
经典	-1639
绝对	-1640
病因	-1641
亿元	-1642
人民法院	-1643
诸葛	-1644
咖啡	-1645
激发	-1646
积累	-1647
多次	-1648
国务院	-1649
中小	-1650
案例	-1651
人工智能	-1652
的好	-1653
,《	-1654
信用	-1655
名称	-1656
分配	-1657
血糖	-1658
赔偿	-1659
回答	-1660
肠道	-1661
一天	-1662
发明	-1663
疫苗	-1664
快乐	-1665
个体	-1666
东北	-1667
▁根据	-1668
国外	-1669
简单的	-1670
明白	-1671
▁随着	-1672
的心	-1673
宗教	-1674
广告	-1675
苏联	-1676
科研	-1677
创业	-1678
▁年	-1679
所得	-1680
公众	-1681
▁四	-1682
的变化	-1683
协调	-1684
▁h	-1685
住房	-1686
的要求	-1687
熟悉	-1688
的行为	-1689
欢迎	-1690
司马	-1691
小组	-1692
把握	-1693
流程	-1694
强烈	-1695
更为	-1696
上涨	-1697
种类	-1698
提供了	-1699
中间	-1700
群众	-1701
子女	-1702
著名的	-1703
设立	-1704
应对	-1705
品质	-1706
上了	-1707
决策	-1708
配合	-1709
万元	-1710
低于	-1711
▁e	-1712
确保	-1713
mm	-1714
敏感	-1715
造成的	-1716
幸福	-1717
法规	-1718
通信	-1719
简称	-1720
证券	-1721
绘画	-1722
发性	-1723
方的	-1724
玻璃	-1725
适用	-1726
服用	-1727
iv	-1728
天气	-1729
唯一	-1730
财务	-1731
转化	-1732
il	-1733
年间	-1734
众多	-1735
一个人	-1736
也许	-1737
留下	-1738
生活的	-1739
基地	-1740
同学们	-1741
一条	-1742
河南	-1743
青年	-1744
并发	-1745
肥胖	-1746
心的	-1747
各类	-1748
发病率	-1749
威胁	-1750
居住	-1751
广东	-1752
大利	-1753
内膜	-1754
慢慢	-1755
是不是	-1756
增多	-1757
在一起	-1758
是非常	-1759
司法	-1760
还可以	-1761
技术的	-1762
▁小	-1763
或是	-1764
视频	-1765
诗人	-1766
但在	-1767
权的	-1768
仅仅	-1769
当事人	-1770
获取	-1771
▁中	-1772
都知道	-1773
形成了	-1774
院校	-1775
会导致	-1776
即可	-1777
依赖	-1778
民主	-1779
体制	-1780
事实上	-1781
孔子	-1782
也就是说	-1783
几年	-1784
依法	-1785
很快	-1786
寻找	-1787
提出了	-1788
个性	-1789
护理	-1790
人民币	-1791
上下	-1792
浙江	-1793
的治疗	-1794
某种	-1795
公布	-1796
至于	-1797
在这个	-1798
测量	-1799
都可以	-1800
监督	-1801
很有	-1802
美的	-1803
车辆	-1804
要注意	-1805
协会	-1806
ent	-1807
就不	-1808
识别	-1809
社区	-1810
的过程中	-1811
海洋	-1812
养成	-1813
颈椎	-1814
人数	-1815
走向	-1816
强度	-1817
的特点	-1818
驾驶	-1819
名的	-1820
源于	-1821
构建	-1822
监测	-1823
减轻	-1824
多样	-1825
而在	-1826
共和国	-1827
给孩子	-1828
总体	-1829
公司的	-1830
笔者	-1831
二是	-1832
不够	-1833
担心	-1834
要素	-1835
否则	-1836
你们	-1837
愿意	-1838
每次	-1839
首次	-1840
提醒	-1841
▁、	-1842
高等	-1843
通知	-1844
吸烟	-1845
帝国	-1846
财富	-1847
的教学	-1848
遗产	-1849
探讨	-1850
招生	-1851
流感	-1852
推广	-1853
做出	-1854
三种	-1855
名为	-1856
爆发	-1857
收藏	-1858
群体	-1859
支撑	-1860
配置	-1861
消失	-1862
诸葛亮	-1863
上市	-1864
▁为	-1865
允许	-1866
公元前	-1867
组合	-1868
色的	-1869
高于	-1870
休息	-1871
才是	-1872
便是	-1873
的现象	-1874
也可	-1875
利润	-1876
这就	-1877
的社会	-1878
混合	-1879
都能	-1880
享受	-1881
电影	-1882
办公	-1883
各国	-1884
诗歌	-1885
广大	-1886
铁路	-1887
的东西	-1888
彻底	-1889
研发	-1890
水果	-1891
焦虑	-1892
);	-1893
身上	-1894
这类	-1895
物流	-1896
器的	-1897
忽视	-1898
之所以	-1899
也没有	-1900
班级	-1901
杂志	-1902
▁近	-1903
先后	-1904
岁的	-1905
使用的	-1906
负担	-1907
场所	-1908
对外	-1909
将军	-1910
os	-1911
解放	-1912
相应的	-1913
新生	-1914
始终	-1915
商务	-1916
不但	-1917
覆盖	-1918
本科	-1919
清晰	-1920
夫妻	-1921
保健	-1922
接近	-1923
升高	-1924
之为	-1925
市场的	-1926
▁目前	-1927
na	-1928
办理	-1929
公民	-1930
起到	-1931
的食物	-1932
运营	-1933
做了	-1934
石油	-1935
月份	-1936
视觉	-1937
同一	-1938
想到	-1939
认定	-1940
俄罗斯	-1941
对此	-1942
▁第	-1943
人为	-1944
一代	-1945
提前	-1946
不了	-1947
不用	-1948
展开	-1949
活性	-1950
体会	-1951
三大	-1952
流产	-1953
现在的	-1954
咳嗽	-1955
水的	-1956
形成的	-1957
城镇	-1958
效应	-1959
老人	-1960
特性	-1961
看来	-1962
im	-1963
的环境	-1964
宝宝的	-1965
无论是	-1966
在这里	-1967
台湾	-1968
cm	-1969
爸爸	-1970
叫做	-1971
av	-1972
老年	-1973
事物	-1974
传说	-1975
收集	-1976
成为了	-1977
季节	-1978
日益	-1979
公开	-1980
上面	-1981
大大	-1982
朱元	-1983
主要有	-1984
落实	-1985
刘备	-1986
做法	-1987
区块	-1988
十五	-1989
进程	-1990
压迫	-1991
资格	-1992
养殖	-1993
的基础上	-1994
;(	-1995
▁那么	-1996
停止	-1997
的规定	-1998
很好的	-1999
过多	-2000
朱元璋	-2001
刘邦	-2002
地的	-2003
他在	-2004
em	-2005
纠纷	-2006
职工	-2007
给大家	-2008
保存	-2009
自行	-2010
患有	-2011
也在	-2012
自信	-2013
平等	-2014
消耗	-2015
人士	-2016
有助于	-2017
北方	-2018
一方面	-2019
的关键	-2020
另一方面	-2021
又称	-2022
将会	-2023
智力	-2024
dp	-2025
释放	-2026
恶性	-2027
口腔	-2028
民国	-2029
ig	-2030
春秋	-2031
▁由于	-2032
将其	-2033
消息	-2034
启动	-2035
高级	-2036
时期的	-2037
道理	-2038
权力	-2039
诱发	-2040
课堂教学	-2041
四川	-2042
健康的	-2043
外的	-2044
师生	-2045
或许	-2046
想法	-2047
ot	-2048
过于	-2049
创建	-2050
进而	-2051
明显的	-2052
地震	-2053
疗法	-2054
还能	-2055
深度	-2056
传承	-2057
一生	-2058
甲醛	-2059
出发	-2060
不适	-2061
发行	-2062
人们的	-2063
癌的	-2064
优化	-2065
打开	-2066
现状	-2067
正常的	-2068
塑料	-2069
攻击	-2070
中原	-2071
如果你	-2072
真正的	-2073
▁但	-2074
这次	-2075
▁:	-2076
感情	-2077
初期	-2078
扩张	-2079
香港	-2080
唐朝	-2081
的目的	-2082
子宫内膜	-2083
角色	-2084
一系列	-2085
可以在	-2086
民事	-2087
尝试	-2088
节日	-2089
内涵	-2090
存储	-2091
是从	-2092
要有	-2093
天的	-2094
房产	-2095
抵抗	-2096
合法	-2097
较高	-2098
这时	-2099
辐射	-2100
立即	-2101
已有	-2102
相似	-2103
后果	-2104
志愿	-2105
探究	-2106
小说	-2107
发生在	-2108
那样	-2109
发生了	-2110
之下	-2111
合适	-2112
气体	-2113
讲解	-2114
后期	-2115
大型	-2116
几种	-2117
老年人	-2118
清洁	-2119
起义	-2120
ab	-2121
程度上	-2122
股市	-2123
排放	-2124
分裂	-2125
规定的	-2126
普及	-2127
不仅仅	-2128
注册	-2129
禁止	-2130
产量	-2131
难度	-2132
!"	-2133
存在的	-2134
大数据	-2135
身边	-2136
哪里	-2137
辅助	-2138
等方面	-2139
典型	-2140
婚姻	-2141
的结果	-2142
装饰	-2143
得到了	-2144
的数据	-2145
的国家	-2146
围绕	-2147
大学生	-2148
伴有	-2149
事项	-2150
思路	-2151
高效	-2152
为大家	-2153
痛苦	-2154
基本上	-2155
▁不	-2156
共享	-2157
离开	-2158
白色	-2159
部队	-2160
乳房	-2161
互动	-2162
实力	-2163
的患者	-2164
三国	-2165
南北	-2166
我们可以	-2167
本书	-2168
粮食	-2169
之路	-2170
江苏	-2171
的知识	-2172
区块链	-2173
形势	-2174
干燥	-2175
举行	-2176
▁in	-2177
共产	-2178
之处	-2179
中国人	-2180
出台	-2181
请求	-2182
机的	-2183
浓度	-2184
当代	-2185
和社会	-2186
始皇	-2187
这也是	-2188
来讲	-2189
om	-2190
附近	-2191
来到	-2192
对比	-2193
象征	-2194
发生的	-2195
主张	-2196
经济发展	-2197
发电	-2198
排卵	-2199
这个问题	-2200
又是	-2201
遗址	-2202
步骤	-2203
中华人民	-2204
相当于	-2205
校长	-2206
顺利	-2207
常规	-2208
原来	-2209
来了	-2210
活动的	-2211
▁[	-2212
头痛	-2213
纳税	-2214
提示	-2215
最初	-2216
交换	-2217
加速	-2218
为何	-2219
当年	-2220
题目	-2221
一部分	-2222
说话	-2223
非法	-2224
淋巴	-2225
更好的	-2226
用人	-2227
学位	-2228
录取	-2229
初中	-2230
无疑	-2231
争议	-2232
近视	-2233
我们要	-2234
罗马	-2235
op	-2236
就在	-2237
腹泻	-2238
情形	-2239
英雄	-2240
封建	-2241
有害	-2242
我国的	-2243
定期	-2244
会在	-2245
作出	-2246
有可能	-2247
妇科	-2248
重复	-2249
";	-2250
气管	-2251
指挥	-2252
千万	-2253
终于	-2254
寿命	-2255
研究所	-2256
进口	-2257
广州	-2258
翻译	-2259
美丽	-2260
前的	-2261
》《	-2262
肺炎	-2263
加以	-2264
明的	-2265
▁美国	-2266
著作	-2267
高速	-2268
消除	-2269
一项	-2270
十八	-2271
层面	-2272
还没有	-2273
数的	-2274
原始	-2275
去年	-2276
机器人	-2277
签订	-2278
权益	-2279
每个人	-2280
补偿	-2281
建造	-2282
强化	-2283
并发症	-2284
时代的	-2285
文献	-2286
马克	-2287
▁今天	-2288
人力	-2289
能力的	-2290
乾隆	-2291
也能	-2292
母乳	-2293
国有	-2294
百分	-2295
不开	-2296
考古	-2297
一样的	-2298
住宅	-2299
和其他	-2300
新型	-2301
一带	-2302
用药	-2303
虚拟	-2304
称之为	-2305
商标	-2306
履行	-2307
反而	-2308
实验室	-2309
硕士	-2310
肝脏	-2311
我们在	-2312
战斗	-2313
供给	-2314
的外	-2315
证书	-2316
地下	-2317
大于	-2318
带着	-2319
装置	-2320
ow	-2321
批准	-2322
产生了	-2323
预期	-2324
范围内	-2325
秦始皇	-2326
网上	-2327
刑事	-2328
不得不	-2329
并在	-2330
依靠	-2331
阳光	-2332
的概念	-2333
中毒	-2334
关心	-2335
纷纷	-2336
太平	-2337
地区的	-2338
处罚	-2339
空调	-2340
无人	-2341
电话	-2342
公平	-2343
大概	-2344
确认	-2345
转型	-2346
做的	-2347
约定	-2348
结论	-2349
阶级	-2350
制品	-2351
灵活	-2352
早在	-2353
电动	-2354
离婚	-2355
亿美元	-2356
显得	-2357
畸形	-2358
过的	-2359
合成	-2360
▁要	-2361
波动	-2362
离子	-2363
考察	-2364
传输	-2365
缺陷	-2366
大会	-2367
战国	-2368
理由	-2369
pp	-2370
形状	-2371
诞生	-2372
应该是	-2373
政权	-2374
中华民族	-2375
便秘	-2376
产品的	-2377
经济的	-2378
岗位	-2379
自身的	-2380
家里	-2381
下去	-2382
高达	-2383
全世界	-2384
一名	-2385
动态	-2386
不如	-2387
密度	-2388
ii	-2389
▁但是	-2390
代的	-2391
自觉	-2392
经济学	-2393
地面	-2394
强制	-2395
或者是	-2396
得以	-2397
▁其实	-2398
转让	-2399
相反	-2400
胜利	-2401
改造	-2402
▁of	-2403
修复	-2404
合并	-2405
毕竟	-2406
四大	-2407
大幅	-2408
担任	-2409
分离	-2410
很好	-2411
消防	-2412
三十	-2413
渠道	-2414
发热	-2415
加大	-2416
诸多	-2417
▁an	-2418
编辑	-2419
▁以	-2420
转换	-2421
生成	-2422
康熙	-2423
从小	-2424
期限	-2425
股东	-2426
收缩	-2427
违法	-2428
牛奶	-2429
例子	-2430
内分泌	-2431
东南	-2432
传递	-2433
摄影	-2434
输入	-2435
这位	-2436
经理	-2437
主席	-2438
留学	-2439
斯坦	-2440
间的	-2441
永远	-2442
印象	-2443
长江	-2444
):	-2445
西北	-2446
一体	-2447
共有	-2448
所谓的	-2449
研究人员	-2450
力和	-2451
初步	-2452
消毒	-2453
卫星	-2454
药品	-2455
增生	-2456
这一点	-2457
前后	-2458
亚洲	-2459
那就是	-2460
▁是	-2461
类的	-2462
ag	-2463
gdp	-2464
最佳	-2465
cp	-2466
最重要的	-2467
航空	-2468
先天	-2469
出现的	-2470
多年的	-2471
修改	-2472
单纯	-2473
不久	-2474
对待	-2475
看出	-2476
ce	-2477
艾滋	-2478
交往	-2479
每一	-2480
缺少	-2481
中华人民共和国	-2482
劳动者	-2483
ation	-2484
这两	-2485
成年人	-2486
流传	-2487
其中的	-2488
青春	-2489
不在	-2490
康复	-2491
的形式	-2492
疲劳	-2493
冲击	-2494
种子	-2495
解读	-2496
河北	-2497
流通	-2498
布局	-2499
体质	-2500
教师的	-2501
班主任	-2502
:(	-2503
硬化	-2504
代理	-2505
晚期	-2506
的热	-2507
研究生	-2508
特定	-2509
ter	-2510
线的	-2511
癫痫	-2512
的第一	-2513
千年	-2514
此次	-2515
合物	-2516
▁第三	-2517
▁所以	-2518
下列	-2519
起了	-2520
提到	-2521
税收	-2522
复习	-2523
反对	-2524
欣赏	-2525
场景	-2526
时刻	-2527
实在	-2528
权威	-2529
另一个	-2530
和平	-2531
溃疡	-2532
高温	-2533
爆炸	-2534
我们就	-2535
为此	-2536
优质	-2537
的故事	-2538
含义	-2539
效益	-2540
最好的	-2541
大师	-2542
课文	-2543
th	-2544
征收	-2545
劳动合同	-2546
上有	-2547
反思	-2548
回到	-2549
分数	-2550
原料	-2551
森林	-2552
注射	-2553
升级	-2554
式的	-2555
等级	-2556
▁五	-2557
深圳	-2558
的功能	-2559
每日	-2560
▁上	-2561
古人	-2562
带来了	-2563
是我国	-2564
必要的	-2565
呼吸道	-2566
买卖	-2567
充足	-2568
到达	-2569
的文化	-2570
制的	-2571
互相	-2572
盆腔	-2573
人与	-2574
最低	-2575
对应	-2576
冬季	-2577
注意力	-2578
晚上	-2579
大陆	-2580
官员	-2581
外国	-2582
理财	-2583
各位	-2584
对其	-2585
▁自	-2586
整合	-2587
视为	-2588
云南	-2589
近代	-2590
关键词	-2591
鉴定	-2592
党的	-2593
物品	-2594
古老	-2595
的不同	-2596
激励	-2597
树立	-2598
心理学	-2599
历史的	-2600
合格	-2601
十三	-2602
增值	-2603
直肠	-2604
理性	-2605
发出	-2606
病例	-2607
已成为	-2608
越来越多	-2609
作战	-2610
细节	-2611
进展	-2612
认可	-2613
人类的	-2614
可以通过	-2615
各自	-2616
在一	-2617
希腊	-2618
性疾病	-2619
分娩	-2620
倾向	-2621
山西	-2622
身心	-2623
频繁	-2624
机体	-2625
家人	-2626
生动	-2627
冲突	-2628
飞机	-2629
优点	-2630
排名	-2631
包装	-2632
内在	-2633
的信息	-2634
南方	-2635
债券	-2636
图像	-2637
排出	-2638
显然	-2639
▁一般	-2640
有多	-2641
百年	-2642
微生物	-2643
宏观	-2644
的可能	-2645
抑郁症	-2646
的一些	-2647
仔细	-2648
较低	-2649
所致	-2650
驱动	-2651
腹部	-2652
批评	-2653
陕西	-2654
价值观	-2655
服务器	-2656
囊肿	-2657
▁关于	-2658
知识的	-2659
学生在	-2660
繁殖	-2661
的机会	-2662
件事	-2663
强大的	-2664
的技术	-2665
照片	-2666
短期	-2667
湖南	-2668
读者	-2669
天津	-2670
心灵	-2671
变革	-2672
太多	-2673
的风险	-2674
老师的	-2675
综合征	-2676
","	-2677
非洲	-2678
走进	-2679
重的	-2680
随后	-2681
若干	-2682
债权	-2683
秩序	-2684
不多	-2685
增速	-2686
暴力	-2687
火灾	-2688
肺癌	-2689
放弃	-2690
▁the	-2691
差距	-2692
写的	-2693
本来	-2694
公园	-2695
武器	-2696
呕吐	-2697
牙齿	-2698
较多	-2699
上课	-2700
分解	-2701
下了	-2702
▁v	-2703
带有	-2704
才会	-2705
房子	-2706
胚胎	-2707
却是	-2708
人和	-2709
的中	-2710
的效果	-2711
oc	-2712
能否	-2713
对方	-2714
意外	-2715
装修	-2716
功效	-2717
保留	-2718
不需要	-2719
重要的是	-2720
区分	-2721
举办	-2722
可靠	-2723
的需求	-2724
一方	-2725
和发展	-2726
唐代	-2727
的就是	-2728
外部	-2729
在我国	-2730
贫血	-2731
说是	-2732
检验	-2733
素养	-2734
英文	-2735
增大	-2736
乡村	-2737
马克思	-2738
从此	-2739
使其	-2740
可分为	-2741
三角	-2742
专业的	-2743
又有	-2744
处的	-2745
西南	-2746
▁与	-2747
条例	-2748
▁通过	-2749
事务	-2750
轻松	-2751
有没有	-2752
的经济	-2753
肌瘤	-2754
▁作为	-2755
▁st	-2756
水分	-2757
管理的	-2758
大规模	-2759
的重要性	-2760
颗粒	-2761
武帝	-2762
氛围	-2763
▁如何	-2764
内心	-2765
电力	-2766
公路	-2767
朝廷	-2768
患病	-2769
图书	-2770
打击	-2771
肛门	-2772
用人单位	-2773
刚刚	-2774
不育	-2775
她的	-2776
独特的	-2777
听到	-2778
尚未	-2779
教育部	-2780
模拟	-2781
极为	-2782
一起来	-2783
论坛	-2784
代码	-2785
喂养	-2786
女儿	-2787
是为了	-2788
命令	-2789
体温	-2790
不可能	-2791
视力	-2792
信任	-2793
大气	-2794
各项	-2795
发的	-2796
所需	-2797
渗透	-2798
▁为了	-2799
召开	-2800
的使用	-2801
人格	-2802
诸侯	-2803
od	-2804
ph	-2805
还在	-2806
作家	-2807
房价	-2808
十六	-2809
导致的	-2810
增加了	-2811
股权	-2812
单元	-2813
会使	-2814
匈奴	-2815
拒绝	-2816
税务	-2817
都没有	-2818
节能	-2819
五年	-2820
看法	-2821
▁这是	-2822
乃至	-2823
未来的	-2824
世界的	-2825
去世	-2826
我想	-2827
替代	-2828
来源于	-2829
▁我国	-2830
半年	-2831
的危害	-2832
▁李	-2833
放射	-2834
不宜	-2835
误区	-2836
茶叶	-2837
人文	-2838
实体	-2839
改革开放	-2840
不当	-2841
下跌	-2842
贵族	-2843
eb	-2844
框架	-2845
会影响	-2846
大众	-2847
对孩子	-2848
最多	-2849
毕业生	-2850
通道	-2851
在一个	-2852
很高	-2853
主持	-2854
目的是	-2855
og	-2856
延长	-2857
等症状	-2858
差别	-2859
懂得	-2860
担保	-2861
西安	-2862
玩具	-2863
学历	-2864
可持续	-2865
可谓	-2866
法定	-2867
多元	-2868
大致	-2869
示范	-2870
不易	-2871
借款	-2872
信息化	-2873
存在着	-2874
存款	-2875
心血管	-2876
面前	-2877
为人	-2878
研究院	-2879
固醇	-2880
紊乱	-2881
东方	-2882
意志	-2883
委托	-2884
那里	-2885
美国的	-2886
▁什么是	-2887
监控	-2888
小儿	-2889
预计	-2890
学校的	-2891
日军	-2892
发现了	-2893
带领	-2894
画家	-2895
远远	-2896
予以	-2897
混凝	-2898
▁你	-2899
频率	-2900
干扰	-2901
饮料	-2902
即将	-2903
恐惧	-2904
汉字	-2905
适用于	-2906
产后	-2907
兄弟	-2908
命运	-2909
▁现在	-2910
活跃	-2911
强大	-2912
一路	-2913
给了	-2914
黄河	-2915
习俗	-2916
缓慢	-2917
承认	-2918
制造业	-2919
宣布	-2920
面向	-2921
黄色	-2922
自治	-2923
比赛	-2924
这项	-2925
取得了	-2926
的意思	-2927
ir	-2928
以此	-2929
同比	-2930
更新	-2931
本人	-2932
传统文化	-2933
时间的	-2934
合理的	-2935
if	-2936
酒精	-2937
是我们	-2938
组成部分	-2939
区的	-2940
成功的	-2941
认为是	-2942
作物	-2943
点的	-2944
央行	-2945
会对	-2946
环境的	-2947
势力	-2948
怎么办	-2949
拍摄	-2950
▁和	-2951
放松	-2952
调控	-2953
让他	-2954
等于	-2955
遵循	-2956
▁王	-2957
姿势	-2958
尿道	-2959
兴奋	-2960
肾脏	-2961
膨胀	-2962
教学中	-2963
出现在	-2964
研究的	-2965
物联网	-2966
善于	-2967
排除	-2968
组织的	-2969
加拿	-2970
以免	-2971
避孕	-2972
他是	-2973
接下来	-2974
条件下	-2975
画面	-2976
立法	-2977
实质	-2978
实践中	-2979
意大利	-2980
属性	-2981
解析	-2982
审美	-2983
两者	-2984
患儿	-2985
访问	-2986
概括	-2987
民众	-2988
毛泽	-2989
师范	-2990
领域的	-2991
两年	-2992
单一	-2993
粘膜	-2994
被告	-2995
两次	-2996
第五	-2997
失眠	-2998
主要的	-2999
乳腺癌	-3000
衣服	-3001
中山	-3002
乳头	-3003
这种情况	-3004
更有	-3005
编程	-3006
科学的	-3007
▁前	-3008
们的	-3009
划分	-3010
节奏	-3011
以外	-3012
培育	-3013
现代化	-3014
为例	-3015
改进	-3016
北宋	-3017
感知	-3018
的地	-3019
当今	-3020
失调	-3021
书籍	-3022
水中	-3023
复合	-3024
格局	-3025
是怎么	-3026
篇文章	-3027
睡觉	-3028
科目	-3029
说过	-3030
毛泽东	-3031
活动中	-3032
湖北	-3033
新鲜	-3034
女性的	-3035
是很	-3036
抵押	-3037
干部	-3038
丧失	-3039
夏季	-3040
建立了	-3041
的认识	-3042
顺序	-3043
的精神	-3044
在线	-3045
要想	-3046
更好地	-3047
极其	-3048
抗日	-3049
清代	-3050
人都	-3051
传感	-3052
信心	-3053
大学的	-3054
公安	-3055
边缘	-3056
▁作者	-3057
指南	-3058
退休	-3059
两大	-3060
出去	-3061
常用	-3062
收获	-3063
管道	-3064
话题	-3065
随时	-3066
难题	-3067
以往	-3068
极大	-3069
也不是	-3070
模块	-3071
是如何	-3072
挖掘	-3073
无效	-3074
杆菌	-3075
▁高	-3076
工厂	-3077
较大的	-3078
繁荣	-3079
中药	-3080
之地	-3081
四年	-3082
天地	-3083
贫困	-3084
潜在	-3085
装备	-3086
医师	-3087
斗争	-3088
造型	-3089
成年	-3090
苹果	-3091
促使	-3092
再生	-3093
缴纳	-3094
混凝土	-3095
的表现	-3096
发射	-3097
▁人	-3098
有个	-3099
机动	-3100
腰椎	-3101
萎缩	-3102
新生儿	-3103
好处	-3104
的美	-3105
股价	-3106
▁图	-3107
典型的	-3108
伟大	-3109
就开始	-3110
吃饭	-3111
实用	-3112
史上	-3113
以便	-3114
同时也	-3115
染色	-3116
的核心	-3117
明代	-3118
爱好	-3119
饲料	-3120
采访	-3121
搜索	-3122
治愈	-3123
黑色	-3124
日子	-3125
局限	-3126
更高	-3127
燃烧	-3128
%;	-3129
简介	-3130
物体	-3131
过了	-3132
通风	-3133
接着	-3134
纳入	-3135
的中国	-3136
首先要	-3137
大力	-3138
马上	-3139
山水	-3140
承受	-3141
考研	-3142
间盘	-3143
生命的	-3144
ps	-3145
抗生素	-3146
日起	-3147
优先	-3148
而已	-3149
的思想	-3150
书中	-3151
移民	-3152
均衡	-3153
估计	-3154
战役	-3155
信仰	-3156
补贴	-3157
哺乳	-3158
打造	-3159
相结合	-3160
新兴	-3161
局面	-3162
息肉	-3163
▁这个	-3164
宪法	-3165
对话	-3166
关系的	-3167
复杂的	-3168
乙肝	-3169
远离	-3170
的安全	-3171
胰岛	-3172
中最	-3173
流量	-3174
辅导	-3175
发动机	-3176
什么样的	-3177
几十	-3178
忽略	-3179
既然	-3180
孩子在	-3181
解除	-3182
适宜	-3183
联合国	-3184
爱国	-3185
得了	-3186
线上	-3187
饮用	-3188
▁re	-3189
侵犯	-3190
让他们	-3191
总统	-3192
文本	-3193
长大	-3194
长城	-3195
人体的	-3196
电子商务	-3197
景观	-3198
韩国	-3199
福建	-3200
境内	-3201
爱的	-3202
病理	-3203
单独	-3204
演讲	-3205
储备	-3206
定了	-3207
杭州	-3208
燃料	-3209
▁教学	-3210
免疫力	-3211
艾滋病	-3212
特殊的	-3213
书写	-3214
不起	-3215
扩展	-3216
队伍	-3217
无数	-3218
种种	-3219
延续	-3220
侵权	-3221
引入	-3222
鸡蛋	-3223
同意	-3224
外汇	-3225
手指	-3226
抓住	-3227
这两个	-3228
周边	-3229
坏死	-3230
▁因此	-3231
防范	-3232
了很多	-3233
有点	-3234
多吃	-3235
建成	-3236
聪明	-3237
有限公司	-3238
污水	-3239
平方米	-3240
秘密	-3241
情节	-3242
防护	-3243
也不能	-3244
电路	-3245
许可	-3246
大臣	-3247
现金	-3248
经济增长	-3249
胆固醇	-3250
数据库	-3251
平面	-3252
说到	-3253
共产党	-3254
十一	-3255
十九	-3256
确诊	-3257
租赁	-3258
外界	-3259
选用	-3260
江南	-3261
细胞的	-3262
力度	-3263
哮喘	-3264
▁为什么	-3265
占据	-3266
不论	-3267
试点	-3268
水肿	-3269
起源	-3270
足够的	-3271
前列腺炎	-3272
养生	-3273
武汉	-3274
知识产权	-3275
遵守	-3276
飞行	-3277
考核	-3278
研讨	-3279
单词	-3280
男女	-3281
电源	-3282
航天	-3283
太极	-3284
不动	-3285
情境	-3286
指的是	-3287
书记	-3288
化疗	-3289
多为	-3290
达到了	-3291
有效地	-3292
▁x	-3293
认证	-3294
▁文	-3295
不上	-3296
膀胱	-3297
军的	-3298
项羽	-3299
日常生活中	-3300
阴阳	-3301
了中国	-3302
几点	-3303
利的	-3304
伙伴	-3305
伟大的	-3306
白带	-3307
浪费	-3308
职责	-3309
历代	-3310
抽象	-3311
身体的	-3312
好像	-3313
在美国	-3314
条规定	-3315
气温	-3316
的艺术	-3317
的角度	-3318
临床上	-3319
信息技术	-3320
借助	-3321
某个	-3322
▁j	-3323
研究表明	-3324
修建	-3325
经历了	-3326
▁张	-3327
小孩	-3328
秦国	-3329
怎样的	-3330
黏膜	-3331
骨质	-3332
的选择	-3333
已经成为	-3334
法治	-3335
激烈	-3336
cr	-3337
学期	-3338
证实	-3339
心肌	-3340
摘要	-3341
评论	-3342
入侵	-3343
圆形	-3344
成交	-3345
清华	-3346
点击	-3347
的有	-3348
所说的	-3349
糜烂	-3350
开启	-3351
化合物	-3352
常识	-3353
切除	-3354
随之	-3355
尽可能	-3356
反射	-3357
最新	-3358
约束	-3359
的标准	-3360
主管	-3361
回收	-3362
模仿	-3363
承包	-3364
站在	-3365
的企业	-3366
pv	-3367
词汇	-3368
精力	-3369
的管理	-3370
透明	-3371
帝王	-3372
需要的	-3373
是要	-3374
超越	-3375
人对	-3376
万物	-3377
悠久	-3378
算法	-3379
有一些	-3380
一家	-3381
成都	-3382
无线	-3383
清明	-3384
地上	-3385
一片	-3386
用途	-3387
阿拉	-3388
厚的	-3389
接种	-3390
游泳	-3391
现有	-3392
具体的	-3393
基础上	-3394
是由于	-3395
原子	-3396
水平的	-3397
更容易	-3398
表演	-3399
意的	-3400
次数	-3401
产物	-3402
ay	-3403
成语	-3404
河流	-3405
人力资源	-3406
长安	-3407
为止	-3408
背后	-3409
位的	-3410
采购	-3411
骨骼	-3412
疗效	-3413
硬件	-3414
输出	-3415
取决	-3416
营造	-3417
违反	-3418
毒素	-3419
▁k	-3420
古典	-3421
记得	-3422
▁然而	-3423
变成了	-3424
的一部分	-3425
不错	-3426
代替	-3427
别的	-3428
哪个	-3429
期货	-3430
工程师	-3431
朝鲜	-3432
结核	-3433
是通过	-3434
干预	-3435
前景	-3436
所得税	-3437
的目标	-3438
境界	-3439
海外	-3440
神秘	-3441
会上	-3442
为中心	-3443
关联	-3444
年度	-3445
延伸	-3446
加拿大	-3447
的感觉	-3448
利息	-3449
充电	-3450
食欲	-3451
出版社	-3452
前提	-3453
讲究	-3454
间接	-3455
大便	-3456
女人	-3457
容量	-3458
风景	-3459
讲座	-3460
也很	-3461
灭亡	-3462
进攻	-3463
必须要	-3464
多见	-3465
是可以	-3466
热量	-3467
独立的	-3468
全体	-3469
心里	-3470
重庆	-3471
原本	-3472
地点	-3473
太子	-3474
展现	-3475
的应用	-3476
判决	-3477
多了	-3478
笔记	-3479
负责人	-3480
结石	-3481
说起	-3482
取决于	-3483
一座	-3484
提起	-3485
东汉	-3486
儒家	-3487
入学	-3488
拓展	-3489
的状态	-3490
程度的	-3491
一段时间	-3492
剧烈	-3493
▁因为	-3494
ib	-3495
复发	-3496
主观	-3497
地说	-3498
不太	-3499
故障	-3500
约为	-3501
讲述	-3502
有益	-3503
比如说	-3504
好了	-3505
这个时候	-3506
渐渐	-3507
五个	-3508
将来	-3509
陷入	-3510
紧密	-3511
出土	-3512
刑法	-3513
正规	-3514
视野	-3515
的出现	-3516
进行的	-3517
心情	-3518
手法	-3519
江西	-3520
性生活	-3521
几天	-3522
参数	-3523
绝大多数	-3524
工商	-3525
分泌物	-3526
精彩	-3527
北京市	-3528
一场	-3529
确立	-3530
就已经	-3531
的一项	-3532
留在	-3533
个人的	-3534
激光	-3535
所以在	-3536
可用	-3537
图案	-3538
▁本文	-3539
▁·	-3540
就没有	-3541
名词	-3542
致使	-3543
se	-3544
概率	-3545
被动	-3546
完整的	-3547
市场上	-3548
发酵	-3549
营业	-3550
有一定的	-3551
%~	-3552
家具	-3553
父母的	-3554
一边	-3555
不受	-3556
直径	-3557
患上	-3558
液体	-3559
联盟	-3560
▁虽然	-3561
▁|	-3562
结节	-3563
而来	-3564
离不开	-3565
一级	-3566
汉语	-3567
小朋友	-3568
中国人民	-3569
安徽	-3570
走势	-3571
印刷	-3572
后人	-3573
金额	-3574
基层	-3575
春节	-3576
基本的	-3577
干净	-3578
太阳能	-3579
诗词	-3580
副作用	-3581
下午	-3582
贵的	-3583
抗体	-3584
结婚	-3585
能力和	-3586
▁孩子	-3587
城乡	-3588
审查	-3589
的相关	-3590
较高的	-3591
在大	-3592
无限	-3593
仲裁	-3594
分散	-3595
的前提	-3596
老百姓	-3597
士兵	-3598
困扰	-3599
内外	-3600
算是	-3601
寻求	-3602
长度	-3603
实现了	-3604
生长发育	-3605
深化	-3606
遭受	-3607
新疆	-3608
饮酒	-3609
中所	-3610
报考	-3611
某一	-3612
金融机构	-3613
如果不	-3614
知的	-3615
万吨	-3616
胰岛素	-3617
能在	-3618
有趣	-3619
几率	-3620
防控	-3621
不敢	-3622
端午	-3623
利亚	-3624
影响到	-3625
注意事项	-3626
不见	-3627
移植	-3628
运作	-3629
害怕	-3630
造成了	-3631
主导	-3632
通讯	-3633
玉米	-3634
缺点	-3635
如果是	-3636
西部	-3637
基础设施	-3638
占有	-3639
儿童的	-3640
受精	-3641
贝尔	-3642
重量	-3643
第二次	-3644
打破	-3645
一份	-3646
还需要	-3647
均匀	-3648
携带	-3649
的原则	-3650
该如何	-3651
无力	-3652
宋朝	-3653
而成	-3654
ind	-3655
的需要	-3656
后世	-3657
术后	-3658
一件	-3659
狭窄	-3660
微信	-3661
职能	-3662
腹痛	-3663
战场	-3664
洛阳	-3665
清除	-3666
之时	-3667
的开	-3668
毒品	-3669
不变	-3670
的活动	-3671
市民	-3672
部署	-3673
大战	-3674
那种	-3675
向上	-3676
时机	-3677
教室	-3678
不断地	-3679
为基础	-3680
检察	-3681
婴幼儿	-3682
痔疮	-3683
破裂	-3684
毫米	-3685
采集	-3686
假如	-3687
与其	-3688
ai	-3689
处在	-3690
季度	-3691
随意	-3692
▁.	-3693
教研	-3694
等地	-3695
过渡	-3696
解答	-3697
雌激素	-3698
活力	-3699
这也	-3700
会产生	-3701
科学院	-3702
支出	-3703
化和	-3704
落后	-3705
院长	-3706
也不会	-3707
栽培	-3708
推出	-3709
邀请	-3710
引领	-3711
心态	-3712
常用的	-3713
的设计	-3714
西班	-3715
段时间	-3716
但是在	-3717
国王	-3718
肝炎	-3719
让我	-3720
生活在	-3721
汇率	-3722
的因素	-3723
病原	-3724
难点	-3725
他说	-3726
后者	-3727
西班牙	-3728
出于	-3729
研究发现	-3730
剂量	-3731
人们对	-3732
不一样	-3733
二氧化	-3734
极大的	-3735
中期	-3736
路径	-3737
之上	-3738
▁多	-3739
节课	-3740
类型的	-3741
膳食	-3742
dna	-3743
两侧	-3744
把它	-3745
免费	-3746
尽快	-3747
使学生	-3748
▁and	-3749
▁很多	-3750
架构	-3751
再加上	-3752
南宋	-3753
等的	-3754
节约	-3755
首都	-3756
▁一个	-3757
是否有	-3758
ia	-3759
十四	-3760
富有	-3761
更大	-3762
新能源	-3763
小于	-3764
等待	-3765
图形	-3766
的市场	-3767
减退	-3768
提倡	-3769
防火	-3770
传感器	-3771
提高了	-3772
▁日	-3773
公益	-3774
因子	-3775
园林	-3776
心脏病	-3777
率为	-3778
健全	-3779
过来	-3780
占领	-3781
誉为	-3782
表现出	-3783
文化遗产	-3784
感兴趣	-3785
元年	-3786
地域	-3787
怀疑	-3788
档案	-3789
越来越多的	-3790
俗称	-3791
宋代	-3792
跟着	-3793
女子	-3794
陌生	-3795
为一	-3796
道的	-3797
孕期	-3798
不大	-3799
部落	-3800
不仅是	-3801
二年	-3802
月初	-3803
神经系统	-3804
会造成	-3805
取代	-3806
目录	-3807
符号	-3808
and	-3809
▁如	-3810
少的	-3811
建于	-3812
回顾	-3813
ml	-3814
总量	-3815
西藏	-3816
范畴	-3817
是没有	-3818
如果没有	-3819
光绪	-3820
国内外	-3821
正如	-3822
的形成	-3823
脊柱	-3824
要在	-3825
清洗	-3826
年底	-3827
这样一个	-3828
好奇	-3829
提出的	-3830
看起来	-3831
前期	-3832
cd	-3833
从中	-3834
的意义	-3835
依照	-3836
股份	-3837
礼仪	-3838
sp	-3839
大国	-3840
让你	-3841
公斤	-3842
交叉	-3843
办学	-3844
知名	-3845
与此	-3846
鼻炎	-3847
发达国家	-3848
梦想	-3849
不出	-3850
就是在	-3851
致癌	-3852
的习惯	-3853
认同	-3854
ava	-3855
动画	-3856
集成	-3857
行业的	-3858
转向	-3859
进食	-3860
官方	-3861
明清	-3862
的光	-3863
的位置	-3864
死后	-3865
男孩	-3866
不及	-3867
▁大家	-3868
到来	-3869
热情	-3870
巩固	-3871
气的	-3872
工人	-3873
绩效	-3874
隐患	-3875
验证	-3876
各级	-3877
冠状	-3878
带动	-3879
赋予	-3880
近日	-3881
价值的	-3882
暴露	-3883
减肥	-3884
%-	-3885
一只	-3886
书画	-3887
净化	-3888
上世纪	-3889
了解一下	-3890
病症	-3891
认识到	-3892
我在	-3893
基督	-3894
社交	-3895
红军	-3896
外科	-3897
灵魂	-3898
记住	-3899
可引起	-3900
临时	-3901
行星	-3902
账户	-3903
一般来说	-3904
城市的	-3905
灾害	-3906
给他	-3907
海军	-3908
听力	-3909
面上	-3910
试图	-3911
会引起	-3912
苏州	-3913
文人	-3914
融入	-3915
工作中	-3916
体积	-3917
变形	-3918
复兴	-3919
身体健康	-3920
购房	-3921
这是一个	-3922
中小学	-3923
女孩	-3924
殖民	-3925
增值税	-3926
回家	-3927
恶心	-3928
阐述	-3929
众所	-3930
等问题	-3931
上去	-3932
早已	-3933
质的	-3934
至关	-3935
假设	-3936
过滤	-3937
使人	-3938
在家	-3939
接收	-3940
背景下	-3941
制约	-3942
与其他	-3943
长达	-3944
作为一个	-3945
个别	-3946
都需要	-3947
ex	-3948
岁时	-3949
颈部	-3950
数据显示	-3951
。。	-3952
探测	-3953
轨道	-3954
的人生	-3955
申报	-3956
培养学生	-3957
百万	-3958
的时代	-3959
衰竭	-3960
生态环境	-3961
回归	-3962
演变	-3963
支气管	-3964
喜爱	-3965
分之一	-3966
:《	-3967
描写	-3968
适当的	-3969
主流	-3970
不断的	-3971
遭遇	-3972
骨头	-3973
借鉴	-3974
暂时	-3975
模糊	-3976
机动车	-3977
如同	-3978
增高	-3979
展览	-3980
我认为	-3981
亲子	-3982
娱乐	-3983
疑问	-3984
防御	-3985
办公室	-3986
一块	-3987
形容	-3988
接口	-3989
意识到	-3990
故意	-3991
的确	-3992
的存在	-3993
在其	-3994
有时候	-3995
专题	-3996
衡量	-3997
的法律	-3998
之道	-3999
叶片	-4000
超声	-4001
的速度	-4002
mg	-4003
不安	-4004
小心	-4005
cl	-4006
ci	-4007
从来	-4008
排便	-4009
命题	-4010
是为	-4011
家长们	-4012
弹性	-4013
皇后	-4014
决定了	-4015
体现了	-4016
汉朝	-4017
的女性	-4018
应用于	-4019
主要包括	-4020
今天的	-4021
借贷	-4022
sh	-4023
传染病	-4024
对人体	-4025
倡导	-4026
受损	-4027
果实	-4028
感受到	-4029
享有	-4030
人心	-4031
地质	-4032
归纳	-4033
的理解	-4034
氨基	-4035
违约	-4036
上网	-4037
服装	-4038
开设	-4039
富含	-4040
福利	-4041
脱离	-4042
安全的	-4043
政府的	-4044
萝卜	-4045
前面	-4046
看见	-4047
文艺	-4048
电磁	-4049
有许多	-4050
本次	-4051
十七	-4052
这座	-4053
西汉	-4054
不清	-4055
公务	-4056
祭祀	-4057
终身	-4058
年轻人	-4059
众所周	-4060
人均	-4061
后面	-4062
聚集	-4063
此后	-4064
创意	-4065
受益	-4066
交通事故	-4067
工作人员	-4068
启发	-4069
分别是	-4070
侵害	-4071
之战	-4072
引进	-4073
高峰	-4074
堵塞	-4075
层的	-4076
ess	-4077
课堂上	-4078
少量	-4079
的名	-4080
中文	-4081
对称	-4082
宫颈癌	-4083
头部	-4084
有无	-4085
可使	-4086
泡沫	-4087
二战	-4088
提交	-4089
要点	-4090
的三	-4091
日常生活	-4092
储存	-4093
专用	-4094
数额	-4095
近期	-4096
野生	-4097
不住	-4098
兴起	-4099
委会	-4100
雕塑	-4101
机遇	-4102
埃及	-4103
侵略	-4104
▁用	-4105
专注	-4106
脑血管	-4107
调研	-4108
就需要	-4109
祖先	-4110
面试	-4111
电压	-4112
提取	-4113
都很	-4114
压缩	-4115
家庭教育	-4116
教会	-4117
标题	-4118
瓷器	-4119
载体	-4120
的价值	-4121
葡萄酒	-4122
▁这些	-4123
不超过	-4124
生于	-4125
线路	-4126
越南	-4127
太后	-4128
首要	-4129
祖国	-4130
越大	-4131
可以说是	-4132
每周	-4133
量子	-4134
▁该	-4135
封闭	-4136
就被	-4137
疏松	-4138
优秀的	-4139
的具体	-4140
ba	-4141
手续	-4142
相传	-4143
ie	-4144
ma	-4145
另一种	-4146
产妇	-4147
条款	-4148
上一	-4149
获得了	-4150
出身	-4151
顾客	-4152
布置	-4153
恶性肿瘤	-4154
行走	-4155
骨折	-4156
的各种	-4157
策划	-4158
同步	-4159
同样的	-4160
朝代	-4161
tr	-4162
可在	-4163
竟然	-4164
导师	-4165
古城	-4166
待遇	-4167
中共	-4168
期望	-4169
达成	-4170
"、	-4171
人大	-4172
卵子	-4173
得多	-4174
魅力	-4175
必需	-4176
此类	-4177
即便	-4178
节气	-4179
大批	-4180
尤为	-4181
版本	-4182
创始	-4183
别人的	-4184
设计的	-4185
动手	-4186
原因是	-4187
体现在	-4188
自动化	-4189
分化	-4190
学员	-4191
可以用	-4192
给学生	-4193
转载	-4194
人是	-4195
较少	-4196
辉煌	-4197
的心理	-4198
欲望	-4199
贯彻	-4200
去了	-4201
得出	-4202
提问	-4203
资源的	-4204
行情	-4205
用地	-4206
菩萨	-4207
它们的	-4208
之际	-4209
影像	-4210
用了	-4211
月的	-4212
一直在	-4213
的说法	-4214
起来的	-4215
▁其	-4216
历程	-4217
尺寸	-4218
满意	-4219
失业	-4220
对抗	-4221
为主要	-4222
芯片	-4223
年开始	-4224
提供的	-4225
混乱	-4226
▁近年来	-4227
研究中心	-4228
组成的	-4229
科普	-4230
构造	-4231
人身	-4232
用电	-4233
的天	-4234
鲁迅	-4235
痉挛	-4236
乐观	-4237
中枢	-4238
消灭	-4239
远程	-4240
除此	-4241
颈椎病	-4242
是无	-4243
据说	-4244
毫无	-4245
不利	-4246
联储	-4247
越多	-4248
竞争力	-4249
更换	-4250
警惕	-4251
精准	-4252
复制	-4253
ers	-4254
日的	-4255
界的	-4256
死亡率	-4257
累计	-4258
pr	-4259
转化为	-4260
心中	-4261
的多	-4262
盈利	-4263
环境中	-4264
信息的	-4265
治疗方法	-4266
电流	-4267
并未	-4268
曲张	-4269
照顾	-4270
汉族	-4271
水泥	-4272
水量	-4273
词语	-4274
期待	-4275
发放	-4276
的世界	-4277
这时候	-4278
平方公里	-4279
性别	-4280
查看	-4281
舒适	-4282
衰老	-4283
下来的	-4284
热爱	-4285
教学的	-4286
欧盟	-4287
起点	-4288
是人类	-4289
便于	-4290
味道	-4291
货物	-4292
对中国	-4293
排列	-4294
他们在	-4295
君主	-4296
亲自	-4297
函数	-4298
加剧	-4299
授权	-4300
▁另外	-4301
很重要	-4302
伴随着	-4303
情景	-4304
精液	-4305
发言	-4306
戏剧	-4307
》)	-4308
等人	-4309
路线	-4310
尼亚	-4311
表现在	-4312
抗战	-4313
直观	-4314
高压	-4315
功能的	-4316
心病	-4317
引导学生	-4318
"?	-4319
给我们	-4320
见到	-4321
加热	-4322
身高	-4323
阻碍	-4324
的最大	-4325
切实	-4326
相同的	-4327
下肢	-4328
分割	-4329
尖锐	-4330
州市	-4331
神奇	-4332
紧急	-4333
条件的	-4334
也被	-4335
公式	-4336
一半	-4337
密码	-4338
持有	-4339
一篇	-4340
不必	-4341
▁其次	-4342
▁月	-4343
共识	-4344
参观	-4345
审理	-4346
澳大利	-4347
风湿	-4348
推行	-4349
对学生	-4350
标签	-4351
药物治疗	-4352
来自于	-4353
▁他	-4354
上看	-4355
仪式	-4356
了一些	-4357
自古	-4358
诈骗	-4359
标准的	-4360
pa	-4361
广西	-4362
▁国家	-4363
澳大利亚	-4364
的部分	-4365
的大小	-4366
克服	-4367
搭配	-4368
纠正	-4369
舞蹈	-4370
致病	-4371
神话	-4372
理工	-4373
舞台	-4374
自然的	-4375
众所周知	-4376
揭示	-4377
旨在	-4378
超级	-4379
的营养	-4380
等因素	-4381
句子	-4382
开始了	-4383
的高度	-4384
物种	-4385
联邦	-4386
行为的	-4387
口服	-4388
塑造	-4389
创设	-4390
新增	-4391
失去了	-4392
大夫	-4393
负面	-4394
取消	-4395
白血	-4396
星期	-4397
反馈	-4398
寒冷	-4399
未能	-4400
使命	-4401
破产	-4402
强烈的	-4403
最早的	-4404
▁刘	-4405
审判	-4406
低下	-4407
高原	-4408
积极性	-4409
书面	-4410
我就	-4411
今后	-4412
她们	-4413
染色体	-4414
列入	-4415
是用	-4416
受到了	-4417
扩散	-4418
很多的	-4419
需要注意	-4420
改为	-4421
调动	-4422
隔离	-4423
特定的	-4424
新技术	-4425
管辖	-4426
年后	-4427
强迫	-4428
数字化	-4429
公主	-4430
但由于	-4431
就是要	-4432
有一种	-4433
部件	-4434
收到	-4435
服务的	-4436
华夏	-4437
遭到	-4438
预算	-4439
的人物	-4440
没有任何	-4441
话说	-4442
甚至是	-4443
这是因为	-4444
石头	-4445
三是	-4446
作为一种	-4447
劳动力	-4448
干细胞	-4449
的理论	-4450
形的	-4451
过高	-4452
子宫肌瘤	-4453
精确	-4454
样子	-4455
有些人	-4456
建筑物	-4457
之内	-4458
应急	-4459
比重	-4460
pm	-4461
马克思主义	-4462
见的	-4463
一套	-4464
巴黎	-4465
在这种	-4466
天然气	-4467
污染物	-4468
pe	-4469
医药	-4470
字的	-4471
的可能性	-4472
一张	-4473
发掘	-4474
▁导	-4475
头晕	-4476
论述	-4477
导致了	-4478
就诊	-4479
浏览	-4480
要么	-4481
等到	-4482
生活方式	-4483
▁答	-4484
发起	-4485
人之	-4486
潜力	-4487
而非	-4488
还不	-4489
的语言	-4490
上皮	-4491
进化	-4492
幅度	-4493
眼镜	-4494
改革的	-4495
回忆	-4496
前往	-4497
变更	-4498
奋斗	-4499
温暖	-4500
人人	-4501
粪便	-4502
的传统	-4503
上帝	-4504
试管	-4505
以下几个	-4506
腐蚀	-4507
实习	-4508
ity	-4509
故宫	-4510
网膜	-4511
介绍了	-4512
解决问题	-4513
▁北京	-4514
管理者	-4515
会被	-4516
是大	-4517
专项	-4518
冬天	-4519
正面	-4520
建设的	-4521
异性	-4522
弟子	-4523
考虑到	-4524
看似	-4525
不应	-4526
的疾病	-4527
pl	-4528
太空	-4529
微量	-4530
越高	-4531
朋友们	-4532
第二个	-4533
的专业	-4534
招聘	-4535
血栓	-4536
体检	-4537
▁此外	-4538
发布的	-4539
完美	-4540
课外	-4541
法则	-4542
广播	-4543
相对于	-4544
尿酸	-4545
房间	-4546
崛起	-4547
新冠	-4548
村民	-4549
腐败	-4550
荷兰	-4551
▁水	-4552
将在	-4553
平原	-4554
二次	-4555
就是一个	-4556
面部	-4557
君子	-4558
教科	-4559
血症	-4560
颁布	-4561
更大的	-4562
的增长	-4563
两位	-4564
不高	-4565
按摩	-4566
不懂	-4567
彼此	-4568
通用	-4569
给人	-4570
▁近日	-4571
各种各	-4572
或其他	-4573
知识和	-4574
农历	-4575
血脂	-4576
回报	-4577
徒刑	-4578
小学生	-4579
美联储	-4580
直至	-4581
政策的	-4582
实时	-4583
在我们	-4584
结肠	-4585
教堂	-4586
研制	-4587
的比例	-4588
追溯	-4589
学习和	-4590
通过对	-4591
春天	-4592
春季	-4593
十年代	-4594
丝绸	-4595
引擎	-4596
缩短	-4597
质疑	-4598
阿拉伯	-4599
来看看	-4600
生产的	-4601
湿度	-4602
编制	-4603
外线	-4604
阻塞	-4605
黄帝	-4606
病毒感染	-4607
艺术家	-4608
的风	-4609
路上	-4610
工作者	-4611
介绍一下	-4612
第六	-4613
那时	-4614
数十	-4615
上午	-4616
集中在	-4617
的健康	-4618
夏天	-4619
中国经济	-4620
麻烦	-4621
完成了	-4622
的一切	-4623
真理	-4624
负荷	-4625
市场经济	-4626
灾难	-4627
足以	-4628
来进行	-4629
盲目	-4630
深远	-4631
对孩子的	-4632
存在于	-4633
以下简称	-4634
一词	-4635
机能	-4636
发烧	-4637
截至	-4638
气氛	-4639
这场	-4640
不仅仅是	-4641
斯特	-4642
led	-4643
错误的	-4644
农药	-4645
看着	-4646
功率	-4647
同志	-4648
▁白	-4649
依旧	-4650
出自	-4651
结构的	-4652
老子	-4653
子里	-4654
因其	-4655
愉快	-4656
仪器	-4657
在他	-4658
筛查	-4659
在一定	-4660
涂料	-4661
课本	-4662
领土	-4663
一批	-4664
气象	-4665
信贷	-4666
去做	-4667
协同	-4668
的花	-4669
膜炎	-4670
阻止	-4671
汉武帝	-4672
青春期	-4673
钢琴	-4674
吸入	-4675
脱落	-4676
霉素	-4677
后代	-4678
喝水	-4679
并将	-4680
女士	-4681
力于	-4682
既有	-4683
▁此	-4684
的总	-4685
起诉	-4686
我是	-4687
饲养	-4688
使用权	-4689
▁天	-4690
肝癌	-4691
沙漠	-4692
缺失	-4693
一般的	-4694
不然	-4695
不容	-4696
期徒刑	-4697
极端	-4698
梳理	-4699
少数民族	-4700
青铜	-4701
占比	-4702
创立	-4703
妻子	-4704
的权利	-4705
交互	-4706
垂直	-4707
最常见的	-4708
精心	-4709
》:"	-4710
关节炎	-4711
处置	-4712
最高的	-4713
非常的	-4714
审计	-4715
未成年人	-4716
。)	-4717
都被	-4718
热水	-4719
美好	-4720
太宗	-4721
网页	-4722
研究员	-4723
疱疹	-4724
纳米	-4725
▁这种	-4726
外阴	-4727
可达	-4728
影响了	-4729
睾丸	-4730
▁当然	-4731
科学技术	-4732
当下	-4733
麻醉	-4734
中国古代	-4735
突变	-4736
导向	-4737
文中	-4738
比特	-4739
支配	-4740
阳性	-4741
变动	-4742
静脉曲张	-4743
▁陈	-4744
以其	-4745
家长的	-4746
响应	-4747
社保	-4748
对手	-4749
上学	-4750
重建	-4751
所有权	-4752
还可	-4753
文明的	-4754
防水	-4755
这条	-4756
合适的	-4757
▁周	-4758
旅行	-4759
附属	-4760
最多的	-4761
日报	-4762
法人	-4763
团体	-4764
广阔	-4765
广场	-4766
一个是	-4767
原创	-4768
比喻	-4769
焦点	-4770
观测	-4771
一时	-4772
加坡	-4773
武则	-4774
ss	-4775
的人们	-4776
海上	-4777
照明	-4778
也可能	-4779
回事	-4780
发现的	-4781
脊髓	-4782
终端	-4783
的人群	-4784
关闭	-4785
旋转	-4786
职务	-4787
贵州	-4788
给宝宝	-4789
桥梁	-4790
协助	-4791
过大	-4792
为代表	-4793
动机	-4794
电气	-4795
被誉为	-4796
事业单位	-4797
优良	-4798
治疗的	-4799
解决方案	-4800
元朝	-4801
为什么要	-4802
配套	-4803
董事	-4804
一开始	-4805
金融危机	-4806
得不到	-4807
瑜伽	-4808
等多种	-4809
诺贝尔	-4810
历经	-4811
深的	-4812
时间内	-4813
流动性	-4814
二级	-4815
人民政府	-4816
▁y	-4817
前者	-4818
链接	-4819
咱们	-4820
是比较	-4821
的最佳	-4822
日期	-4823
有毒	-4824
相继	-4825
做一个	-4826
潜能	-4827
食品安全	-4828
国土	-4829
描绘	-4830
爱情	-4831
抵抗力	-4832
的区别	-4833
开创	-4834
陶瓷	-4835
有一定	-4836
草原	-4837
周年	-4838
条约	-4839
国家和	-4840
资本主义	-4841
感悟	-4842
节点	-4843
其余	-4844
一日	-4845
维修	-4846
观看	-4847
不管是	-4848
煤炭	-4849
有的人	-4850
体力	-4851
除此之外	-4852
者和	-4853
陆续	-4854
稳定性	-4855
对自己	-4856
拆迁	-4857
散文	-4858
视角	-4859
一度	-4860
不想	-4861
才有	-4862
放大	-4863
爸爸妈妈	-4864
下面就	-4865
零售	-4866
的主体	-4867
te	-4868
伴随	-4869
愿望	-4870
修养	-4871
宫外	-4872
一直是	-4873
四肢	-4874
▁学	-4875
应注意	-4876
▁黄	-4877
化工	-4878
平常	-4879
过程中的	-4880
不同于	-4881
头的	-4882
准妈妈	-4883
到医院	-4884
真是	-4885
▁ch	-4886
▁th	-4887
▁所谓	-4888
始于	-4889
手中	-4890
凭借	-4891
云计算	-4892
走路	-4893
负债	-4894
牺牲	-4895
意义的	-4896
有过	-4897
中含有	-4898
net	-4899
的态度	-4900
起源于	-4901
不一	-4902
海拔	-4903
信托	-4904
大人	-4905
定为	-4906
向前	-4907
今日	-4908
而又	-4909
的话题	-4910
头发	-4911
耐心	-4912
调解	-4913
精细	-4914
ht	-4915
开花	-4916
事物的	-4917
改变了	-4918
残疾	-4919
开学	-4920
德育	-4921
胰腺	-4922
项目的	-4923
感谢	-4924
在全国	-4925
在外	-4926
投降	-4927
节目	-4928
饮水	-4929
介入	-4930
受害	-4931
授课	-4932
曲线	-4933
识字	-4934
"-	-4935
气血	-4936
胎盘	-4937
建国	-4938
敌人	-4939
边的	-4940
一般在	-4941
伦敦	-4942
朗读	-4943
许多人	-4944
临床表现	-4945
你会	-4946
路由	-4947
充血	-4948
讲话	-4949
高等教育	-4950
学生的学习	-4951
伦理	-4952
一人	-4953
大军	-4954
好好	-4955
摩擦	-4956
轻微	-4957
有关的	-4958
夜间	-4959
李世	-4960
有两个	-4961
我们应该	-4962
▁可	-4963
体外	-4964
hpv	-4965
心理健康	-4966
不停	-4967
▁最近	-4968
入手	-4969
引起了	-4970
的生产	-4971
过敏性	-4972
雕刻	-4973
沿海	-4974
恶化	-4975
行驶	-4976
健身	-4977
当作	-4978
中等	-4979
立体	-4980
涉及到	-4981
关羽	-4982
屈原	-4983
执法	-4984
甘肃	-4985
▁专家	-4986
▁u	-4987
开了	-4988
授予	-4989
学说	-4990
各有	-4991
期刊	-4992
鉴别	-4993
纽约	-4994
一句	-4995
美洲	-4996
的有效	-4997
回来	-4998
的老	-4999
ge	-5000
▁无	-5001
体内的	-5002
java	-5003
主人	-5004
承诺	-5005
这两种	-5006
树木	-5007
过分	-5008
app	-5009
看到了	-5010
户外	-5011
古老的	-5012
▁以上	-5013
创造了	-5014
的主题	-5015
将领	-5016
效力	-5017
杀死	-5018
而后	-5019
功能障碍	-5020
人际	-5021
列为	-5022
肠胃	-5023
最有	-5024
欧美	-5025
出资	-5026
摆脱	-5027
院士	-5028
手术治疗	-5029
创伤	-5030
密集	-5031
意图	-5032
垄断	-5033
观众	-5034
奖励	-5035
月球	-5036
衰退	-5037
翡翠	-5038
意义上	-5039
放置	-5040
道教	-5041
所以说	-5042
分别为	-5043
受伤	-5044
杠杆	-5045
约占	-5046
农产品	-5047
排水	-5048
▁来源	-5049
公务员	-5050
一流	-5051
并不能	-5052
de	-5053
书的	-5054
十字	-5055
端午节	-5056
花园	-5057
学生们	-5058
实际情况	-5059
库存	-5060
症的	-5061
史料	-5062
查询	-5063
缺血	-5064
我觉得	-5065
团结	-5066
色素	-5067
宫外孕	-5068
去医院	-5069
的人才	-5070
网友	-5071
课时	-5072
省级	-5073
找出	-5074
不利于	-5075
公正	-5076
天子	-5077
溶液	-5078
只不过	-5079
开关	-5080
这里的	-5081
乏力	-5082
二者	-5083
▁企业	-5084
血液循环	-5085
宽松	-5086
概述	-5087
专科	-5088
胃肠	-5089
随机	-5090
这句话	-5091
进入了	-5092
也将	-5093
了解到	-5094
多么	-5095
播种	-5096
秋季	-5097
往往是	-5098
忘记	-5099
源头	-5100
光伏	-5101
当你	-5102
癌细胞	-5103
法制	-5104
私人	-5105
便利	-5106
阿尔	-5107
明确的	-5108
教育教学	-5109
无所	-5110
较小	-5111
本地	-5112
先天性	-5113
大家都	-5114
的价格	-5115
五大	-5116
协商	-5117
均可	-5118
可以从	-5119
货币政策	-5120
非常重要	-5121
化石	-5122
流失	-5123
发展到	-5124
多人	-5125
未经	-5126
不全	-5127
约有	-5128
那就	-5129
中国特色	-5130
师范大学	-5131
宝贝	-5132
楚国	-5133
深受	-5134
诸如	-5135
皇帝的	-5136
仅有	-5137
原油	-5138
外交	-5139
您的	-5140
近平	-5141
........	-5142
流域	-5143
空中	-5144
金钱	-5145
既是	-5146
积极的	-5147
通俗	-5148
的质量	-5149
收购	-5150
无需	-5151
患者在	-5152
激活	-5153
不容易	-5154
年在	-5155
有序	-5156
正当	-5157
ver	-5158
%、	-5159
司令	-5160
尿液	-5161
用品	-5162
不满	-5163
争取	-5164
养老金	-5165
内存	-5166
街道	-5167
饱和	-5168
一本	-5169
过量	-5170
一般是	-5171
但却	-5172
art	-5173
致力于	-5174
习近平	-5175
▁主要	-5176
的长	-5177
制成	-5178
给你	-5179
肢体	-5180
耳朵	-5181
▁学习	-5182
票据	-5183
上市公司	-5184
人家	-5185
分成	-5186
汉代	-5187
领先	-5188
不一定	-5189
氨基酸	-5190
湿疹	-5191
热点	-5192
媒介	-5193
每月	-5194
分辨	-5195
观赏	-5196
的结构	-5197
年期	-5198
to	-5199
新中国	-5200
子孙	-5201
犹太	-5202
谈谈	-5203
冠心病	-5204
低温	-5205
出售	-5206
大地	-5207
收费	-5208
合金	-5209
安静	-5210
与之	-5211
千里	-5212
史记	-5213
清理	-5214
运河	-5215
和孩子	-5216
审核	-5217
学问	-5218
的力量	-5219
四种	-5220
大肠	-5221
良性	-5222
可以帮助	-5223
▁先	-5224
主力	-5225
的产品	-5226
民俗	-5227
了许多	-5228
惩罚	-5229
视网膜	-5230
标的	-5231
均有	-5232
慈禧	-5233
▁不过	-5234
的两	-5235
从业	-5236
电网	-5237
免疫系统	-5238
报名	-5239
有人说	-5240
记忆力	-5241
困惑	-5242
受孕	-5243
总之	-5244
语音	-5245
生物学	-5246
粒子	-5247
这些问题	-5248
加深	-5249
新时代	-5250
各大	-5251
一周	-5252
上是	-5253
宅基地	-5254
国防	-5255
钢铁	-5256
酸性	-5257
外出	-5258
容器	-5259
的空间	-5260
阶段的	-5261
批判	-5262
差不多	-5263
":	-5264
跟随	-5265
通胀	-5266
平安	-5267
变为	-5268
均为	-5269
每年的	-5270
进行治疗	-5271
其他的	-5272
创始人	-5273
保温	-5274
听说	-5275
之后的	-5276
几何	-5277
白天	-5278
竞赛	-5279
行使	-5280
题材	-5281
上海市	-5282
这对	-5283
弯曲	-5284
▁=	-5285
▁i	-5286
日本的	-5287
发音	-5288
缩小	-5289
百分点	-5290
三次	-5291
地方政府	-5292
生活习惯	-5293
级别	-5294
你可以	-5295
环境保护	-5296
方位	-5297
自学	-5298
商品房	-5299
文学家	-5300
中小企业	-5301
于此	-5302
复苏	-5303
氧气	-5304
物质的	-5305
充分发挥	-5306
山的	-5307
这种疾病	-5308
例外	-5309
对照	-5310
不吃	-5311
后再	-5312
奴隶	-5313
▁第四	-5314
实物	-5315
损坏	-5316
李世民	-5317
李白	-5318
法学	-5319
言语	-5320
顾问	-5321
多彩	-5322
起着	-5323
这段	-5324
稳定的	-5325
国民党	-5326
武则天	-5327
▁生	-5328
一个月	-5329
多年来	-5330
欧元	-5331
同事	-5332
财经	-5333
修订	-5334
返回	-5335
的一个重要	-5336
拍卖	-5337
合伙	-5338
生活中的	-5339
数据的	-5340
重要的作用	-5341
格式	-5342
由来	-5343
褐色	-5344
率领	-5345
可以分为	-5346
一部	-5347
去除	-5348
统一的	-5349
业绩	-5350
岳飞	-5351
发展和	-5352
技术和	-5353
开国	-5354
苏轼	-5355
供应链	-5356
▁al	-5357
热带	-5358
指导下	-5359
与此同时	-5360
蔓延	-5361
就把	-5362
成效	-5363
多媒体	-5364
养老保险	-5365
一看	-5366
产能	-5367
南部	-5368
宫颈糜烂	-5369
毫克	-5370
世界卫生	-5371
二氧化碳	-5372
粘连	-5373
环境下	-5374
准则	-5375
可怕	-5376
文帝	-5377
即是	-5378
王国	-5379
北部	-5380
瘙痒	-5381
诚信	-5382
创新的	-5383
测定	-5384
的数量	-5385
一线	-5386
不止	-5387
担忧	-5388
碰撞	-5389
持久	-5390
首席	-5391
水质	-5392
反映了	-5393
日前	-5394
原来的	-5395
很可能	-5396
con	-5397
的主要原因	-5398
看待	-5399
老板	-5400
垃圾分类	-5401
一百	-5402
与人	-5403
总额	-5404
创造性	-5405
▁q	-5406
会的	-5407
送到	-5408
什么时候	-5409
冷却	-5410
样本	-5411
▁to	-5412
年限	-5413
est	-5414
就不会	-5415
舒服	-5416
语法	-5417
纺织	-5418
走出	-5419
五十	-5420
毒性	-5421
大都	-5422
实的	-5423
扣除	-5424
扮演	-5425
风水	-5426
lin	-5427
ra	-5428
博客	-5429
以致	-5430
减弱	-5431
痛风	-5432
这样做	-5433
年初	-5434
恒星	-5435
承载	-5436
级的	-5437
边界	-5438
多年前	-5439
比特币	-5440
母乳喂养	-5441
光线	-5442
导弹	-5443
轻度	-5444
的定义	-5445
耳鸣	-5446
过去的	-5447
轻易	-5448
部长	-5449
孕育	-5450
艺术的	-5451
双手	-5452
报警	-5453
调理	-5454
画的	-5455
县城	-5456
▁六	-5457
应在	-5458
一种是	-5459
关注的	-5460
怎么样	-5461
也没	-5462
他对	-5463
国学	-5464
图书馆	-5465
又名	-5466
导入	-5467
肿块	-5468
其实是	-5469
白血病	-5470
统治者	-5471
可以看出	-5472
选项	-5473
的事实	-5474
的物质	-5475
严峻	-5476
立方	-5477
纪律	-5478
在了	-5479
小型	-5480
工伤	-5481
恰当	-5482
很高的	-5483
人所	-5484
头脑	-5485
湿疣	-5486
炎的	-5487
这样一	-5488
▁那	-5489
设定	-5490
pc	-5491
短暂	-5492
呈现出	-5493
成为一个	-5494
厉害	-5495
举措	-5496
扫描	-5497
比亚	-5498
血清	-5499
更高的	-5500
传奇	-5501
外伤	-5502
隐藏	-5503
十大	-5504
生涯	-5505
▁比如	-5506
的土地	-5507
骨质疏松	-5508
ist	-5509
秦朝	-5510
结算	-5511
总理	-5512
ate	-5513
开发商	-5514
不堪	-5515
要比	-5516
挫折	-5517
本土	-5518
新加坡	-5519
长期的	-5520
进士	-5521
的人口	-5522
还原	-5523
在这一	-5524
会让	-5525
食管	-5526
全民	-5527
活泼	-5528
做什么	-5529
的那	-5530
ell	-5531
注入	-5532
审批	-5533
说说	-5534
历史上的	-5535
▁就	-5536
协作	-5537
不明	-5538
变量	-5539
弘扬	-5540
根源	-5541
使之	-5542
发票	-5543
雷锋	-5544
前进	-5545
学业	-5546
的文章	-5547
千古	-5548
外观	-5549
商业银行	-5550
西亚	-5551
脂肪酸	-5552
省份	-5553
制度的	-5554
末年	-5555
他人的	-5556
的观点	-5557
知识点	-5558
快速发展	-5559
伤口	-5560
摄取	-5561
演奏	-5562
书院	-5563
有三	-5564
朱棣	-5565
在北京	-5566
无关	-5567
▁将	-5568
相机	-5569
的自然	-5570
▁今年	-5571
和管理	-5572
海南	-5573
小麦	-5574
挑选	-5575
方针	-5576
耶稣	-5577
长沙	-5578
启蒙	-5579
现存	-5580
中外	-5581
这首	-5582
之间的关系	-5583
称作	-5584
内容的	-5585
做事	-5586
面临着	-5587
学生学习	-5588
出租	-5589
突发	-5590
的运动	-5591
丈夫	-5592
要把	-5593
的城市	-5594
易于	-5595
谨慎	-5596
恐怕	-5597
指定	-5598
迁移	-5599
买入	-5600
设计师	-5601
大事	-5602
得名	-5603
用水	-5604
几次	-5605
我校	-5606
微量元素	-5607
病人的	-5608
做过	-5609
太大	-5610
涵盖	-5611
▁除了	-5612
个百分点	-5613
中考	-5614
匹配	-5615
国人	-5616
弥补	-5617
监护	-5618
越好	-5619
城区	-5620
孤独	-5621
有以下	-5622
分工	-5623
板块	-5624
漂亮	-5625
形式的	-5626
绞痛	-5627
在当时	-5628
加密	-5629
份额	-5630
论证	-5631
就必须	-5632
为其	-5633
渴望	-5634
相连	-5635
中医药	-5636
有两	-5637
询问	-5638
▁关键词	-5639
到处	-5640
和大家	-5641
足球	-5642
中风	-5643
场合	-5644
坐在	-5645
耕地	-5646
自行车	-5647
它在	-5648
较好	-5649
一大	-5650
副主任	-5651
为您	-5652
排尿	-5653
肚子	-5654
目前的	-5655
▁;	-5656
表述	-5657
乳汁	-5658
吃了	-5659
见证	-5660
新课程	-5661
固体	-5662
一个人的	-5663
分支	-5664
底部	-5665
与发展	-5666
的生命	-5667
年至	-5668
态势	-5669
说了	-5670
")	-5671
皮质	-5672
税率	-5673
com	-5674
卵泡	-5675
可有	-5676
游客	-5677
东部	-5678
百家	-5679
▁同时	-5680
矿物质	-5681
indow	-5682
分的	-5683
肿胀	-5684
人有	-5685
和方法	-5686
吃的	-5687
▁下面	-5688
肥料	-5689
铸造	-5690
人生的	-5691
的范围	-5692
总局	-5693
缺氧	-5694
酸盐	-5695
各种各样的	-5696
争论	-5697
的最高	-5698
口语	-5699
优惠	-5700
流水	-5701
千年的	-5702
永久	-5703
立刻	-5704
如果在	-5705
广泛的	-5706
还有一个	-5707
最高人民法院	-5708
螺旋	-5709
试管婴儿	-5710
经期	-5711
品德	-5712
作用的	-5713
材料的	-5714
网络安全	-5715
性交	-5716
义务教育	-5717
意义上的	-5718
kg	-5719
做出了	-5720
命名	-5721
民营	-5722
很强的	-5723
研究者	-5724
这本书	-5725
之意	-5726
喝酒	-5727
法律法规	-5728
功夫	-5729
是一位	-5730
▁*	-5731
动症	-5732
难道	-5733
皇家	-5734
瞬间	-5735
这些都是	-5736
有力	-5737
也需要	-5738
ok	-5739
远的	-5740
严谨	-5741
胆囊	-5742
乐器	-5743
付出	-5744
自成	-5745
从未	-5746
艰难	-5747
遗嘱	-5748
超过了	-5749
随便	-5750
但这	-5751
作了	-5752
半岛	-5753
先进的	-5754
紫外线	-5755
创办	-5756
姓氏	-5757
征服	-5758
较差	-5759
运转	-5760
▁现代	-5761
标识	-5762
安全性	-5763
侵入	-5764
考查	-5765
及其他	-5766
奥运	-5767
平行	-5768
被人	-5769
陈代谢	-5770
在哪里	-5771
当我们	-5772
山区	-5773
-"	-5774
就算	-5775
难免	-5776
的朋友	-5777
由此可见	-5778
家中	-5779
物业	-5780
孙中山	-5781
理事	-5782
为核心	-5783
会发生	-5784
仿佛	-5785
地图	-5786
细致	-5787
有期徒刑	-5788
中秋	-5789
死于	-5790
有两种	-5791
不妨	-5792
终止	-5793
伊斯	-5794
公认	-5795
声明	-5796
消化道	-5797
特有的	-5798
编写	-5799
花费	-5800
质量的	-5801
密封	-5802
广义	-5803
手足	-5804
指示	-5805
xx	-5806
异位	-5807
旺盛	-5808
纪录	-5809
世界卫生组织	-5810
自杀	-5811
叶酸	-5812
困境	-5813
要从	-5814
一道	-5815
名人	-5816
运动的	-5817
▁古	-5818
和高	-5819
ms	-5820
或者说	-5821
名义	-5822
早产	-5823
不对	-5824
保守	-5825
一颗	-5826
国家级	-5827
较好的	-5828
意愿	-5829
版权	-5830
球菌	-5831
透过	-5832
珍贵	-5833
这是一种	-5834
不尽	-5835
常态	-5836
秘书	-5837
为我们	-5838
在内的	-5839
退出	-5840
镜头	-5841
看到的	-5842
后来的	-5843
的危险	-5844
公积	-5845
被迫	-5846
人性	-5847
执政	-5848
拿到	-5849
糖尿病患者	-5850
字母	-5851
电信	-5852
雍正	-5853
的生长	-5854
阴道炎	-5855
厚度	-5856
职位	-5857
在世界	-5858
指令	-5859
性强	-5860
落地	-5861
但如果	-5862
消极	-5863
奠定了	-5864
家乡	-5865
法官	-5866
起步	-5867
领袖	-5868
是世界上	-5869
停车	-5870
毫升	-5871
之人	-5872
劳务	-5873
平稳	-5874
题的	-5875
年以来	-5876
▁清	-5877
口罩	-5878
信念	-5879
蓝色	-5880
不孕不育	-5881
传授	-5882
时要	-5883
两国	-5884
为主的	-5885
收益率	-5886
ob	-5887
介石	-5888
很小	-5889
薄弱	-5890
人们在	-5891
他认为	-5892
存活	-5893
详细的	-5894
选择了	-5895
没有什么	-5896
男子	-5897
如有	-5898
代价	-5899
烦恼	-5900
而生	-5901
胃癌	-5902
脆弱	-5903
是目前	-5904
会给	-5905
考证	-5906
蜂蜜	-5907
的政治	-5908
太祖	-5909
黑洞	-5910
参照	-5911
电站	-5912
跑步	-5913
ne	-5914
加之	-5915
米的	-5916
门诊	-5917
间隔	-5918
企业在	-5919
下滑	-5920
姓名	-5921
废物	-5922
激动	-5923
的重	-5924
城镇化	-5925
重要作用	-5926
包皮	-5927
之心	-5928
充分的	-5929
蒋介石	-5930
西医	-5931
十几	-5932
让宝宝	-5933
尖锐湿疣	-5934
亏损	-5935
更快	-5936
腰椎间盘	-5937
早上	-5938
氨酸	-5939
时空	-5940
长久	-5941
矫正	-5942
悲剧	-5943
感恩	-5944
有利	-5945
▁宝宝	-5946
不确定	-5947
用力	-5948
同一个	-5949
广东省	-5950
世界大战	-5951
力学	-5952
合一	-5953
等多	-5954
适量	-5955
▁学生	-5956
)》	-5957
屏幕	-5958
岁以上	-5959
过多的	-5960
万亿	-5961
在全球	-5962
的产生	-5963
一轮	-5964
偶尔	-5965
在校	-5966
以至于	-5967
感觉到	-5968
夫人	-5969
残留	-5970
▁de	-5971
不愿意	-5972
)"	-5973
▁再	-5974
等方面的	-5975
ho	-5976
▁师	-5977
可惜	-5978
民法	-5979
雾霾	-5980
必不可	-5981
火车	-5982
很大程度上	-5983
光的	-5984
清华大学	-5985
了吗	-5986
奇怪	-5987
已被	-5988
考验	-5989
我们需要	-5990
ang	-5991
正好	-5992
有多少	-5993
▁明	-5994
的人员	-5995
可能导致	-5996
个小时	-5997
光照	-5998
母猪	-5999
西洋	-6000
添加剂	-6001
假期	-6002
决心	-6003
赚钱	-6004
病毒的	-6005
的程度	-6006
自治区	-6007
死了	-6008
水利	-6009
焊接	-6010
在位	-6011
"。"	-6012
生产力	-6013
如果有	-6014
战争中	-6015
更重要的是	-6016
时常	-6017
科举	-6018
线条	-6019
建构	-6020
西域	-6021
受精卵	-6022
不幸	-6023
了对	-6024
天文	-6025
梅毒	-6026
教的	-6027
钱币	-6028
导航	-6029
无形	-6030
规格	-6031
预警	-6032
的不断	-6033
可能性	-6034
四十	-6035
用手	-6036
痛经	-6037
贯穿	-6038
真实的	-6039
主办	-6040
依次	-6041
火星	-6042
统筹	-6043
阶层	-6044
邮件	-6045
味的	-6046
强国	-6047
排泄	-6048
绿化	-6049
但其	-6050
抚养	-6051
是将	-6052
看了	-6053
纳税人	-6054
全省	-6055
然后再	-6056
宫腔	-6057
冬至	-6058
否定	-6059
火箭	-6060
跟踪	-6061
附加	-6062
真相	-6063
组建	-6064
预习	-6065
淋巴结	-6066
尽早	-6067
童年	-6068
缴费	-6069
思想的	-6070
indows	-6071
设备的	-6072
;"	-6073
有很大的	-6074
为之	-6075
生殖器	-6076
经济社会	-6077
▁由	-6078
留下了	-6079
解决了	-6080
生病	-6081
迄今	-6082
医生的	-6083
的作品	-6084
教训	-6085
海水	-6086
先生的	-6087
一类	-6088
出行	-6089
室外	-6090
▁)。	-6091
民族的	-6092
两人	-6093
受理	-6094
地处	-6095
温室	-6096
都是在	-6097
ha	-6098
腹腔	-6099
熟练	-6100
世纪的	-6101
业的	-6102
恐怖	-6103
限度	-6104
信用卡	-6105
影响着	-6106
保险公司	-6107
变迁	-6108
特别是在	-6109
六年	-6110
以内	-6111
进去	-6112
那是	-6113
web	-6114
▁等	-6115
所示	-6116
物资	-6117
▁网络	-6118
对自己的	-6119
引用	-6120
所能	-6121
韧带	-6122
不好的	-6123
时间和	-6124
限于	-6125
凝聚	-6126
吸附	-6127
撤销	-6128
方形	-6129
病程	-6130
▁一是	-6131
的重要组成部分	-6132
万里	-6133
下游	-6134
北大	-6135
节省	-6136
及时的	-6137
子宫颈	-6138
营养不良	-6139
逐年	-6140
集合	-6141
尚书	-6142
因此在	-6143
同期	-6144
是世界	-6145
of	-6146
▁金	-6147
王的	-6148
▁摘要	-6149
处处	-6150
系统中	-6151
一定会	-6152
之一的	-6153
的对象	-6154
眼球	-6155
的书	-6156
之初	-6157
掉了	-6158
不成	-6159
崇拜	-6160
溶解	-6161
告诉我们	-6162
人员的	-6163
你知道	-6164
参加了	-6165
度和	-6166
武装	-6167
写字	-6168
得知	-6169
治国	-6170
就医	-6171
青岛	-6172
高兴	-6173
成熟的	-6174
经济学家	-6175
在我	-6176
电商	-6177
的诗	-6178
在国内	-6179
的家庭	-6180
党员	-6181
大胆	-6182
低碳	-6183
美好的	-6184
电机	-6185
类别	-6186
▁儿童	-6187
在孩子	-6188
给我	-6189
少吃	-6190
派遣	-6191
男人	-6192
工业化	-6193
原告	-6194
告知	-6195
剩余	-6196
它可以	-6197
的建筑	-6198
及早	-6199
很简单	-6200
北京大学	-6201
环境污染	-6202
严格的	-6203
葡萄糖	-6204
非常重要的	-6205
卓越	-6206
与社会	-6207
搭建	-6208
东京	-6209
偶然	-6210
城墙	-6211
技艺	-6212
宫颈炎	-6213
之称	-6214
脾气	-6215
防腐	-6216
争夺	-6217
立的	-6218
节的	-6219
精神分裂	-6220
核算	-6221
第三方	-6222
。-	-6223
开拓	-6224
电器	-6225
眼前	-6226
自愿	-6227
▁教育	-6228
一层	-6229
产业链	-6230
盆腔炎	-6231
素质教育	-6232
▁教师	-6233
突出的	-6234
ke	-6235
只会	-6236
传入	-6237
和对	-6238
谈到	-6239
辽宁	-6240
▁正	-6241
和大	-6242
鸦片	-6243
女性朋友	-6244
公告	-6245
若是	-6246
年纪	-6247
影视	-6248
服药	-6249
病菌	-6250
标准化	-6251
此前	-6252
变化的	-6253
,(	-6254
叙述	-6255
无奈	-6256
麻木	-6257
众生	-6258
占地	-6259
又能	-6260
并对	-6261
时有	-6262
的上	-6263
量化	-6264
买房	-6265
奶粉	-6266
相处	-6267
和治疗	-6268
较强的	-6269
地带	-6270
打算	-6271
真菌	-6272
输送	-6273
过早	-6274
以下的	-6275
普通的	-6276
美丽的	-6277
流入	-6278
现行	-6279
公积金	-6280
恰恰	-6281
购物	-6282
分开	-6283
cc	-6284
▁其中	-6285
修正	-6286
首选	-6287
三个月	-6288
人民的	-6289
要求的	-6290
目光	-6291
素材	-6292
ine	-6293
一门	-6294
安置	-6295
乐趣	-6296
解剖	-6297
阴茎	-6298
有必要	-6299
丝绸之路	-6300
寄生	-6301
引力	-6302
振兴	-6303
噪声	-6304
浇水	-6305
系数	-6306
备课	-6307
观音	-6308
遗憾	-6309
的政策	-6310
凭证	-6311
暑假	-6312
衔接	-6313
也叫	-6314
杜甫	-6315
三维	-6316
正义	-6317
沉积	-6318
洗手	-6319
▁马	-6320
配方	-6321
陪伴	-6322
初级	-6323
第七	-6324
麻疹	-6325
运算	-6326
就应该	-6327
管理和	-6328
培养学生的	-6329
北伐	-6330
后续	-6331
前所	-6332
影响的	-6333
何时	-6334
机场	-6335
出生于	-6336
tp	-6337
极易	-6338
四周	-6339
水源	-6340
老龄	-6341
聚焦	-6342
但他	-6343
不存在	-6344
浙江省	-6345
结束后	-6346
股骨头	-6347
一支	-6348
禁忌	-6349
长征	-6350
高层	-6351
面临的	-6352
新课	-6353
显现	-6354
可持续发展	-6355
交付	-6356
会不会	-6357
和生活	-6358
能不能	-6359
门槛	-6360
国债	-6361
就不能	-6362
法律规定	-6363
叶子	-6364
智能化	-6365
特点是	-6366
不愿	-6367
小区	-6368
西兰	-6369
了一系列	-6370
放入	-6371
要多	-6372
ard	-6373
一说	-6374
民生	-6375
潮湿	-6376
家属	-6377
废水	-6378
舆论	-6379
能够在	-6380
再到	-6381
荣誉	-6382
建立在	-6383
七年	-6384
依托	-6385
报纸	-6386
人民群众	-6387
定律	-6388
户口	-6389
不符合	-6390
主义的	-6391
庞大的	-6392
百分之	-6393
打印	-6394
景区	-6395
曾在	-6396
短短	-6397
肺部	-6398
宫廷	-6399
热的	-6400
不稳定	-6401
▁研究	-6402
小编就	-6403
树脂	-6404
完成的	-6405
的全	-6406
付款	-6407
激情	-6408
而导致	-6409
下载	-6410
倾听	-6411
还没	-6412
雨水	-6413
问题是	-6414
结晶	-6415
年中国	-6416
清政府	-6417
要知道	-6418
发送	-6419
擅长	-6420
沈阳	-6421
背后的	-6422
转基因	-6423
及时治疗	-6424
反抗	-6425
有其	-6426
可出现	-6427
西周	-6428
一般情况下	-6429
大豆	-6430
门的	-6431
我们对	-6432
等方式	-6433
历史文化	-6434
胡萝卜	-6435
出汗	-6436
来临	-6437
的古	-6438
影响力	-6439
尤其是在	-6440
普洱	-6441
称呼	-6442
错了	-6443
施肥	-6444
多万	-6445
宝石	-6446
ass	-6447
只需要	-6448
开展了	-6449
现有的	-6450
周岁	-6451
战胜	-6452
立足	-6453
物理学	-6454
双重	-6455
反之	-6456
坚决	-6457
电缆	-6458
老化	-6459
艺术品	-6460
四季	-6461
的科学	-6462
关爱	-6463
编码	-6464
过剩	-6465
往往会	-6466
规矩	-6467
是国家	-6468
人间	-6469
报酬	-6470
肿大	-6471
all	-6472
航母	-6473
ri	-6474
反弹	-6475
受体	-6476
在上	-6477
和学习	-6478
急剧	-6479
交易所	-6480
却没有	-6481
植株	-6482
因为它	-6483
在学习	-6484
自然界	-6485
名叫	-6486
原有	-6487
经费	-6488
各方面	-6489
意识的	-6490
主机	-6491
率先	-6492
的名字	-6493
的条件	-6494
传导	-6495
即位	-6496
要用	-6497
万亿元	-6498
一次性	-6499
江苏省	-6500
外语	-6501
得很	-6502
搜集	-6503
色列	-6504
伊斯兰	-6505
全新的	-6506
fl	-6507
可导致	-6508
战争的	-6509
不通	-6510
标记	-6511
能使	-6512
计量	-6513
距今	-6514
家庭的	-6515
打败	-6516
堆积	-6517
一体化	-6518
的了解	-6519
启示	-6520
贬值	-6521
act	-6522
催化	-6523
熬夜	-6524
跨越	-6525
靠近	-6526
的分析	-6527
两类	-6528
无可	-6529
犹如	-6530
诊疗	-6531
歌曲	-6532
碳水	-6533
变法	-6534
哈佛	-6535
武术	-6536
的可	-6537
盛世	-6538
表情	-6539
▁is	-6540
直线	-6541
写了	-6542
数值	-6543
因为在	-6544
的一次	-6545
的一生	-6546
休闲	-6547
太平洋	-6548
的正常	-6549
天天	-6550
界面	-6551
二十四	-6552
左右的	-6553
?(	-6554
丢失	-6555
定价	-6556
充分利用	-6557
之分	-6558
的本	-6559
走了	-6560
世纪初	-6561
不同程度的	-6562
江山	-6563
性地	-6564
公众号	-6565
是非	-6566
▁最	-6567
木材	-6568
司马懿	-6569
▁活动	-6570
固定的	-6571
业主	-6572
找到了	-6573
本身的	-6574
只需	-6575
常有	-6576
稍微	-6577
关系到	-6578
严重影响	-6579
摄像	-6580
背诵	-6581
风雨	-6582
发生于	-6583
业内	-6584
咽喉	-6585
早餐	-6586
至关重要	-6587
▁pro	-6588
奇迹	-6589
海关	-6590
花的	-6591
废弃	-6592
多样性	-6593
..."	-6594
伤亡	-6595
推翻	-6596
介质	-6597
过长	-6598
鲜明	-6599
综合性	-6600
导体	-6601
不可以	-6602
只有在	-6603
降低了	-6604
这样才能	-6605
便宜	-6606
即使是	-6607
地球上	-6608
加息	-6609
并无	-6610
」,	-6611
时光	-6612
界定	-6613
从而使	-6614
手工	-6615
气味	-6616
禁毒	-6617
蜀汉	-6618
营养素	-6619
动的	-6620
景象	-6621
迎来	-6622
之前的	-6623
科学家们	-6624
二手	-6625
智商	-6626
住院	-6627
做起	-6628
▁这一	-6629
年到	-6630
沿着	-6631
标志着	-6632
gb	-6633
一侧	-6634
市的	-6635
眼光	-6636
大自然	-6637
会长	-6638
孕妈	-6639
开发的	-6640
如果我们	-6641
给出	-6642
也是一个	-6643
光明	-6644
牡丹	-6645
行性	-6646
的呢	-6647
是什么呢	-6648
吉思	-6649
谈判	-6650
还款	-6651
通货	-6652
不难	-6653
经络	-6654
学生对	-6655
变的	-6656
绘本	-6657
太极拳	-6658
术语	-6659
深深	-6660
黑暗	-6661
把自己	-6662
▁唐	-6663
厂家	-6664
滥用	-6665
警察	-6666
才可以	-6667
的一大	-6668
io	-6669
也称	-6670
岁月	-6671
暗示	-6672
要是	-6673
附件	-6674
六个	-6675
闻名	-6676
着重	-6677
超出	-6678
dr	-6679
但它	-6680
全年	-6681
发于	-6682
着手	-6683
以来的	-6684
名单	-6685
听课	-6686
青海	-6687
堪称	-6688
见解	-6689
都城	-6690
开采	-6691
基准	-6692
取得的	-6693
合法权益	-6694
但也	-6695
才能够	-6696
任何一个	-6697
在内	-6698
为本	-6699
圣经	-6700
为中国	-6701
沉淀	-6702
骨髓	-6703
当天	-6704
不振	-6705
灭火	-6706
端的	-6707
误解	-6708
这个人	-6709
千万不要	-6710
早就	-6711
▁每	-6712
无穷	-6713
避孕药	-6714
不像	-6715
也都	-6716
宫殿	-6717
讲的	-6718
真的是	-6719
巴西	-6720
推理	-6721
神经痛	-6722
世人	-6723
五代	-6724
或多	-6725
攻打	-6726
掌握了	-6727
窗口	-6728
的事物	-6729
辅食	-6730
摄入量	-6731
应用程序	-6732
绝大部分	-6733
和小	-6734
迫切	-6735
▁日本	-6736
的本质	-6737
就会出现	-6738
的原	-6739
衍生	-6740
袁世	-6741
州的	-6742
部门的	-6743
也是一种	-6744
吉思汗	-6745
吉林	-6746
当初	-6747
空气污染	-6748
坚定	-6749
日后	-6750
之美	-6751
白银	-6752
立场	-6753
超标	-6754
理想的	-6755
造就	-6756
可以使	-6757
财政部	-6758
任命	-6759
轻轻	-6760
风俗	-6761
花卉	-6762
的兴趣	-6763
保养	-6764
淘汰	-6765
起到了	-6766
落在	-6767
千米	-6768
山脉	-6769
是谁	-6770
这与	-6771
在国际	-6772
的特征	-6773
放到	-6774
促进了	-6775
有不少	-6776
只好	-6777
延迟	-6778
步伐	-6779
没有人	-6780
后天	-6781
适度	-6782
我们将	-6783
橡胶	-6784
这三	-6785
可以看到	-6786
高低	-6787
名校	-6788
新建	-6789
河南省	-6790
进行分析	-6791
孟子	-6792
教导	-6793
袁世凯	-6794
年的时间	-6795
▁南	-6796
不去	-6797
否认	-6798
生效	-6799
向下	-6800
是一项	-6801
中部	-6802
育儿	-6803
致命	-6804
体系的	-6805
元宵	-6806
着的	-6807
毕业后	-6808
而这些	-6809
成吉思汗	-6810
产地	-6811
得好	-6812
奉献	-6813
百度	-6814
站立	-6815
▁如今	-6816
或不	-6817
较长	-6818
人体内	-6819
储蓄	-6820
见于	-6821
页面	-6822
水资源	-6823
古今	-6824
宰相	-6825
ill	-6826
时间长	-6827
趣味	-6828
方式的	-6829
科学研究	-6830
》、	-6831
长寿	-6832
恶劣	-6833
精英	-6834
意思是	-6835
帮助孩子	-6836
奶奶	-6837
源自	-6838
溺水	-6839
污水处理	-6840
还有一些	-6841
互联网金融	-6842
......	-6843
也比较	-6844
众多的	-6845
这件事	-6846
和非	-6847
ta	-6848
中之	-6849
鼻腔	-6850
ord	-6851
申请人	-6852
即为	-6853
质地	-6854
韩信	-6855
类似于	-6856
▁红	-6857
气息	-6858
长期以来	-6859
万历	-6860
仅为	-6861
按时	-6862
病患者	-6863
一般为	-6864
创造力	-6865
给自己	-6866
心脑血管	-6867
材质	-6868
人口的	-6869
培养孩子	-6870
精度	-6871
豆腐	-6872
发布了	-6873
北魏	-6874
瑞士	-6875
之日起	-6876
决定的	-6877
总书记	-6878
构成了	-6879
石器	-6880
供应商	-6881
变异	-6882
潜伏	-6883
针灸	-6884
为目的	-6885
和技术	-6886
癜风	-6887
脾胃	-6888
角膜	-6889
的声音	-6890
戏曲	-6891
数百	-6892
罕见	-6893
与中国	-6894
各省	-6895
宗旨	-6896
敦煌	-6897
▁按照	-6898
▁最后	-6899
充满了	-6900
饮食习惯	-6901
下令	-6902
失常	-6903
会员	-6904
入口	-6905
寺庙	-6906
早晨	-6907
抵御	-6908
龙江	-6909
的大脑	-6910
不断提高	-6911
交通安全	-6912
均线	-6913
平民	-6914
黄疸	-6915
。""	-6916
的投资	-6917
语言的	-6918
对他	-6919
意为	-6920
而且还	-6921
▁?	-6922
供电	-6923
照射	-6924
解放军	-6925
老师们	-6926
里面的	-6927
职业教育	-6928
硫酸	-6929
选拔	-6930
肾功能	-6931
较多的	-6932
文的	-6933
美学	-6934
丞相	-6935
投机	-6936
答题	-6937
他就	-6938
大体	-6939
在这些	-6940
目标的	-6941
玩耍	-6942
艰苦	-6943
辛苦	-6944
齐国	-6945
ect	-6946
▁co	-6947
%)	-6948
我要	-6949
商人	-6950
小时候	-6951
一把	-6952
星系	-6953
山东省	-6954
教师在	-6955
或者其他	-6956
厂商	-6957
更要	-6958
配备	-6959
与否	-6960
备考	-6961
扶贫	-6962
无不	-6963
背部	-6964
金森	-6965
分布在	-6966
脂肪肝	-6967
开水	-6968
抗原	-6969
建立的	-6970
之以	-6971
霉菌	-6972
检察院	-6973
胃肠道	-6974
▁很多人	-6975
被认为是	-6976
公立	-6977
兵力	-6978
序列	-6979
浪漫	-6980
南北朝	-6981
国家安全	-6982
锅炉	-6983
千克	-6984
必定	-6985
虚假	-6986
出生后	-6987
和经济	-6988
日记	-6989
分布式	-6990
哲学家	-6991
ive	-6992
地形	-6993
外来	-6994
补助	-6995
一面	-6996
凡是	-6997
年内	-6998
一定是	-6999
教育家	-7000
▁个	-7001
渐进	-7002
游牧	-7003
起的	-7004
冲动	-7005
肉类	-7006
心理学家	-7007
同年	-7008
选取	-7009
在古代	-7010
了自己的	-7011
大清	-7012
岩石	-7013
死的	-7014
坦克	-7015
学派	-7016
简直	-7017
腰部	-7018
过后	-7019
the	-7020
企业家	-7021
会增加	-7022
唯一的	-7023
实践活动	-7024
中断	-7025
斯基	-7026
温和	-7027
自尊	-7028
在对	-7029
签署	-7030
机构的	-7031
优美	-7032
因果	-7033
勇敢	-7034
宽容	-7035
最快	-7036
生气	-7037
诱导	-7038
个性化	-7039
公安机关	-7040
出国	-7041
听觉	-7042
填报	-7043
可以是	-7044
公证	-7045
哈尔	-7046
烟草	-7047
已经有	-7048
已经被	-7049
指向	-7050
所在地	-7051
研究中	-7052
课件	-7053
车的	-7054
不清楚	-7055
将成为	-7056
的重点	-7057
科学与	-7058
da	-7059
止痛	-7060
里程	-7061
缅甸	-7062
资助	-7063
重组	-7064
隐私	-7065
在学校	-7066
每一位	-7067
几百	-7068
器件	-7069
农业生产	-7070
司机	-7071
途中	-7072
集资	-7073
▁世界	-7074
以色列	-7075
我们所	-7076
理论上	-7077
征求	-7078
服饰	-7079
病史	-7080
其主要	-7081
看作	-7082
辨别	-7083
辩证	-7084
金字	-7085
今年的	-7086
的颜色	-7087
首先是	-7088
密切相关	-7089
中说	-7090
的培养	-7091
我们知道	-7092
毫不	-7093
电解	-7094
和中国	-7095
自己的孩子	-7096
备受	-7097
时节	-7098
花生	-7099
静态	-7100
九年	-7101
交替	-7102
开心	-7103
而有	-7104
规章	-7105
正月	-7106
公里的	-7107
同时也是	-7108
面包	-7109
成交量	-7110
俄国	-7111
家园	-7112
全球化	-7113
深刻的	-7114
居然	-7115
气质	-7116
济南	-7117
的趋势	-7118
不喜欢	-7119
心绞痛	-7120
的根本	-7121
新陈代谢	-7122
之大	-7123
将是	-7124
应试	-7125
痴呆	-7126
约翰	-7127
债权人	-7128
想象力	-7129
等情况	-7130
干旱	-7131
必备	-7132
格兰	-7133
石窟	-7134
者在	-7135
减少了	-7136
的药物	-7137
湖泊	-7138
原有的	-7139
和文化	-7140
始建于	-7141
大多数人	-7142
著作权	-7143
实例	-7144
时尚	-7145
未必	-7146
美观	-7147
白细胞	-7148
水稻	-7149
盛行	-7150
pro	-7151
操作系统	-7152
文物保护	-7153
封为	-7154
一番	-7155
名师	-7156
int	-7157
▁例如	-7158
准确的	-7159
意识和	-7160
综合症	-7161
同比增长	-7162
▁■	-7163
垂体	-7164
屋顶	-7165
神的	-7166
方法和	-7167
血管瘤	-7168
重大的	-7169
王朝的	-7170
的压力	-7171
获得的	-7172
不畅	-7173
称号	-7174
倾斜	-7175
又叫	-7176
定时	-7177
从而导致	-7178
神经元	-7179
中小学生	-7180
场地	-7181
的方向	-7182
健康成长	-7183
一组	-7184
上班	-7185
余人	-7186
积水	-7187
胸部	-7188
低的	-7189
性与	-7190
▁这里	-7191
妈妈的	-7192
还包括	-7193
年起	-7194
秸秆	-7195
]。	-7196
域名	-7197
明了	-7198
用量	-7199
▁se	-7200
年龄段	-7201
希望对	-7202
这个词	-7203
不可避免	-7204
施行	-7205
涌现	-7206
让自己	-7207
历史悠久	-7208
▁它	-7209
伊朗	-7210
最具	-7211
以外的	-7212
这一天	-7213
爷爷	-7214
▁全	-7215
住了	-7216
说出	-7217
时效	-7218
步入	-7219
茶的	-7220
私募	-7221
精品	-7222
除非	-7223
▁尽管	-7224
如果说	-7225
ca	-7226
升值	-7227
润滑	-7228
劳累	-7229
学士	-7230
富裕	-7231
筛选	-7232
内蒙古	-7233
战国时期	-7234
一首	-7235
找不到	-7236
日本人	-7237
人才培养	-7238
修行	-7239
史书	-7240
语文教学	-7241
内脏	-7242
感和	-7243
科院	-7244
提及	-7245
演义	-7246
扬州	-7247
有权	-7248
财物	-7249
八年	-7250
写出	-7251
维度	-7252
帕金森	-7253
卖出	-7254
梗阻	-7255
引发的	-7256
根本上	-7257
深厚	-7258
绝缘	-7259
刚开始	-7260
一对	-7261
痕迹	-7262
肾上	-7263
和国家	-7264
一统	-7265
违背	-7266
经济体	-7267
而来的	-7268
波斯	-7269
薪酬	-7270
鱼类	-7271
▁国际	-7272
自信心	-7273
两条	-7274
服从	-7275
联想	-7276
这意味着	-7277
昆虫	-7278
酒店	-7279
不完全	-7280
非物质	-7281
而被	-7282
中国共产党	-7283
任意	-7284
一个小	-7285
弟弟	-7286
陆军	-7287
在新	-7288
或有	-7289
战术	-7290
族的	-7291
自从	-7292
试题	-7293
▁主	-7294
精华	-7295
软骨	-7296
一个个	-7297
爱因	-7298
不行	-7299
圣诞	-7300
尊敬	-7301
柔软	-7302
解毒	-7303
严重者	-7304
要及时	-7305
为学生	-7306
口头	-7307
和个人	-7308
咖啡因	-7309
哪怕	-7310
底层	-7311
湿地	-7312
而出	-7313
轻重	-7314
选举	-7315
周围的	-7316
不已	-7317
民办	-7318
混淆	-7319
纯粹	-7320
在使用	-7321
政治家	-7322
▁请	-7323
一遍	-7324
删除	-7325
小板	-7326
是与	-7327
阻力	-7328
是怎样	-7329
上方	-7330
各方	-7331
实地	-7332
曾国	-7333
会发现	-7334
梅花	-7335
高端	-7336
肾上腺	-7337
员的	-7338
骑兵	-7339
▁有些	-7340
洗澡	-7341
中国特色社会主义	-7342
抗癌	-7343
汇报	-7344
焚烧	-7345
放疗	-7346
为孩子	-7347
已经是	-7348
荆州	-7349
到现在	-7350
的人格	-7351
仍有	-7352
过错	-7353
什么呢	-7354
都不能	-7355
越来越大	-7356
魏国	-7357
发生率	-7358
型糖尿病	-7359
在中	-7360
月亮	-7361
育人	-7362
一带一路	-7363
爱因斯坦	-7364
所说	-7365
制定的	-7366
前所未	-7367
是需要	-7368
的保护	-7369
都不是	-7370
论语	-7371
五行	-7372
传达	-7373
侧重	-7374
到期	-7375
有所帮助	-7376
巧妙	-7377
较快	-7378
严重时	-7379
!!	-7380
意境	-7381
病灶	-7382
危及	-7383
合约	-7384
哪种	-7385
大纲	-7386
并有	-7387
初始	-7388
的建设	-7389
制剂	-7390
微观	-7391
抗日战争	-7392
ql	-7393
▁杨	-7394
呼吁	-7395
源性	-7396
你在	-7397
敢于	-7398
是我	-7399
更年期	-7400
这部分	-7401
下行	-7402
户籍	-7403
解决问题的	-7404
庆祝	-7405
▁英国	-7406
而且在	-7407
可以将	-7408
很长	-7409
不良反应	-7410
经验的	-7411
以下几点	-7412
呼吸困难	-7413
是一件	-7414
一定要注意	-7415
出门	-7416
这份	-7417
多见于	-7418
采用了	-7419
和尚	-7420
充足的	-7421
特异性	-7422
现今	-7423
了解了	-7424
的时期	-7425
第一位	-7426
两个方面	-7427
刑罚	-7428
淀粉	-7429
界限	-7430
设有	-7431
俗话说	-7432
▁看	-7433
穿越	-7434
网络营销	-7435
资本市场	-7436
拉克	-7437
触摸	-7438
设想	-7439
几个月	-7440
多久	-7441
心得	-7442
神圣	-7443
流行的	-7444
的前提下	-7445
自主学习	-7446
互联	-7447
原文	-7448
有一天	-7449
内有	-7450
点是	-7451
碱性	-7452
one	-7453
windows	-7454
姿态	-7455
成品	-7456
对身体	-7457
发生变化	-7458
之情	-7459
会儿	-7460
元代	-7461
自闭	-7462
这一切	-7463
都应该	-7464
可以根据	-7465
热门	-7466
辛辣	-7467
ys	-7468
休克	-7469
天空	-7470
对立	-7471
菊花	-7472
肝硬化	-7473
人不	-7474
宣告	-7475
着力	-7476
重度	-7477
▁吴	-7478
原体	-7479
外在	-7480
开辟	-7481
末期	-7482
杀手	-7483
cg	-7484
一幅	-7485
世间	-7486
凸显	-7487
发了	-7488
护士	-7489
衰弱	-7490
全国人大	-7491
并能	-7492
播放	-7493
领取	-7494
有关部门	-7495
每个人的	-7496
晶体	-7497
流转	-7498
等一系列	-7499
其所	-7500
昨天	-7501
早期的	-7502
近几年	-7503
一起来看看	-7504
▁西	-7505
余年	-7506
就连	-7507
当成	-7508
微笑	-7509
我也	-7510
中也	-7511
而无	-7512
边境	-7513
更能	-7514
相差	-7515
上面的	-7516
不仅要	-7517
精神的	-7518
人事	-7519
厕所	-7520
爱心	-7521
环境和	-7522
仅仅是	-7523
温馨	-7524
可通过	-7525
新能源汽车	-7526
三百	-7527
志愿者	-7528
月底	-7529
腹胀	-7530
进了	-7531
▁家长	-7532
不等	-7533
佩戴	-7534
失衡	-7535
管制	-7536
进度	-7537
风光	-7538
的优势	-7539
他还	-7540
的责任	-7541
▁编	-7542
养分	-7543
青睐	-7544
不应该	-7545
是指在	-7546
的地位	-7547
的宝宝	-7548
研究和	-7549
入睡	-7550
榜样	-7551
的后	-7552
言之	-7553
ort	-7554
不规则	-7555
就这样	-7556
两天	-7557
写道	-7558
动荡	-7559
杀了	-7560
三个方面	-7561
你要	-7562
化妆	-7563
戒烟	-7564
才华	-7565
扶持	-7566
联军	-7567
不佳	-7568
港口	-7569
演化	-7570
器械	-7571
援助	-7572
cs	-7573
对策	-7574
推崇	-7575
这种现象	-7576
个人所得税	-7577
微博	-7578
气势	-7579
邮票	-7580
得到的	-7581
产业发展	-7582
无比	-7583
涨幅	-7584
黑龙江	-7585
▁分	-7586
技法	-7587
洪水	-7588
电阻	-7589
课程标准	-7590
寺院	-7591
为自己	-7592
▁国	-7593
不下	-7594
切割	-7595
确切	-7596
祖父	-7597
红楼	-7598
饥饿	-7599
使用了	-7600
责任的	-7601
用法	-7602
主管部门	-7603
参与者	-7604
上游	-7605
壁画	-7606
订立	-7607
阳气	-7608
血小板	-7609
东晋	-7610
硬盘	-7611
验收	-7612
传染性	-7613
这篇文章	-7614
名将	-7615
在水	-7616
密的	-7617
注意到	-7618
内障	-7619
办事	-7620
南海	-7621
文书	-7622
熟悉的	-7623
免疫功能	-7624
头疼	-7625
诱因	-7626
地板	-7627
支柱	-7628
的分	-7629
职场	-7630
油画	-7631
闭经	-7632
太多的	-7633
的控制	-7634
这种方法	-7635
将近	-7636
监会	-7637
▁--	-7638
用工	-7639
谈话	-7640
都市	-7641
开始的	-7642
有限的	-7643
优越	-7644
天才	-7645
屏障	-7646
珍珠	-7647
立方米	-7648
情怀	-7649
部位的	-7650
感动	-7651
流出	-7652
留学生	-7653
县级	-7654
死刑	-7655
动物的	-7656
青花	-7657
主要由	-7658
和服务	-7659
)(	-7660
▁万	-7661
严厉	-7662
光滑	-7663
和家长	-7664
对症	-7665
穿刺	-7666
以防	-7667
物价	-7668
第八	-7669
事务所	-7670
教师要	-7671
很多家长	-7672
交给	-7673
全市	-7674
金的	-7675
在社会	-7676
市场化	-7677
病原体	-7678
癌变	-7679
▁以下	-7680
来实现	-7681
白癜风	-7682
扎实	-7683
烦躁	-7684
空白	-7685
建立起	-7686
国之	-7687
挤压	-7688
楼梯	-7689
次于	-7690
控制在	-7691
之说	-7692
模具	-7693
用心	-7694
模式的	-7695
为什么会	-7696
▁记者	-7697
和水	-7698
国力	-7699
孙权	-7700
早教	-7701
蒸发	-7702
蕴含	-7703
▁学校	-7704
明确规定	-7705
书本	-7706
好转	-7707
总的	-7708
首领	-7709
▁下	-7710
哭闹	-7711
手里	-7712
直接影响	-7713
相互作用	-7714
庞大	-7715
急救	-7716
的同学	-7717
通货膨胀	-7718
有何	-7719
研究成果	-7720
养护	-7721
首批	-7722
ng	-7723
回应	-7724
海岸	-7725
金字塔	-7726
溥仪	-7727
几十年	-7728
根系	-7729
泌尿	-7730
灭绝	-7731
所需的	-7732
的发育	-7733
过程的	-7734
只是一个	-7735
世的	-7736
交际	-7737
佛法	-7738
度过	-7739
眼里	-7740
遗迹	-7741
被人们	-7742
定向	-7743
胃炎	-7744
▁女性	-7745
金融市场	-7746
异的	-7747
久之	-7748
吞咽	-7749
异物	-7750
收取	-7751
清水	-7752
临床症状	-7753
管理部门	-7754
pt	-7755
投放	-7756
高出	-7757
漏洞	-7758
医学院	-7759
合同的	-7760
事先	-7761
数目	-7762
领导人	-7763
物权	-7764
中心的	-7765
农民工	-7766
的局面	-7767
又要	-7768
心率	-7769
湿润	-7770
顺应	-7771
在整个	-7772
ns	-7773
一根	-7774
战乱	-7775
日制	-7776
素的	-7777
高祖	-7778
追溯到	-7779
两千	-7780
用以	-7781
辩护	-7782
▁当前	-7783
签证	-7784
考点	-7785
预后	-7786
怎么做	-7787
故乡	-7788
日至	-7789
农户	-7790
本能	-7791
火山	-7792
耐受	-7793
曾国藩	-7794
理论和	-7795
的情绪	-7796
第二天	-7797
结构性	-7798
▁众所周知	-7799
起床	-7800
是人体	-7801
而对于	-7802
结果显示	-7803
入门	-7804
学前	-7805
巧克	-7806
看书	-7807
称帝	-7808
空军	-7809
▁ar	-7810
应及时	-7811
听了	-7812
大门	-7813
杀菌	-7814
百科	-7815
石墨	-7816
纲要	-7817
罚款	-7818
其实就是	-7819
抗菌	-7820
简化	-7821
重症	-7822
最常见	-7823
回落	-7824
是人	-7825
教育和	-7826
转变为	-7827
ence	-7828
上来	-7829
京城	-7830
应激	-7831
餐饮	-7832
中介	-7833
有望	-7834
漫长	-7835
夫妇	-7836
置于	-7837
我们也	-7838
但不	-7839
单个	-7840
或缺	-7841
绝经	-7842
必须在	-7843
是一门	-7844
遗传因素	-7845
事变	-7846
招标	-7847
gr	-7848
保卫	-7849
以后的	-7850
网络的	-7851
先行	-7852
同等	-7853
国民经济	-7854
华为	-7855
华北	-7856
厨房	-7857
就可	-7858
深处	-7859
▁con	-7860
自卑	-7861
一句话	-7862
东南亚	-7863
危险因素	-7864
转为	-7865
身心健康	-7866
想想	-7867
继位	-7868
mba	-7869
气候变化	-7870
嫌疑	-7871
成型	-7872
特勒	-7873
郑州	-7874
和使用	-7875
就在于	-7876
也为	-7877
仍是	-7878
血流	-7879
走上	-7880
金银	-7881
不仅可以	-7882
体位	-7883
彩色	-7884
指引	-7885
日趋	-7886
泰山	-7887
金刚	-7888
▁二是	-7889
学习成绩	-7890
两岸	-7891
后又	-7892
inter	-7893
的刺激	-7894
不相	-7895
人流	-7896
便血	-7897
的字	-7898
而这	-7899
美国人	-7900
以下几个方面	-7901
甲骨	-7902
结局	-7903
迹象	-7904
毛细	-7905
发展为	-7906
成立了	-7907
放射性	-7908
崇祯	-7909
高发	-7910
的其他	-7911
▁for	-7912
之首	-7913
六国	-7914
所作	-7915
之类的	-7916
在他的	-7917
其为	-7918
名思	-7919
村庄	-7920
出一个	-7921
是孩子	-7922
标本	-7923
能耗	-7924
就越	-7925
瑞典	-7926
end	-7927
基因组	-7928
对我们	-7929
何种	-7930
产业的	-7931
在生活中	-7932
结合起来	-7933
大家都知道	-7934
亲属	-7935
蒸汽	-7936
就有了	-7937
很多时候	-7938
养成良好的	-7939
关怀	-7940
北极	-7941
固然	-7942
知道了	-7943
碳水化合物	-7944
各地的	-7945
河北省	-7946
人类社会	-7947
和不	-7948
噪音	-7949
学好	-7950
少见	-7951
情的	-7952
本病	-7953
也非常	-7954
通常是	-7955
很多人都	-7956
一辈	-7957
二人	-7958
追究	-7959
电动汽车	-7960
搜索引擎	-7961
安定	-7962
赵国	-7963
黄体	-7964
基督教	-7965
多样化	-7966
注意的是	-7967
地中	-7968
应付	-7969
燃气	-7970
年前的	-7971
整齐	-7972
也不要	-7973
一书	-7974
代表着	-7975
古代的	-7976
在进行	-7977
就是因为	-7978
》:	-7979
鉴赏	-7980
降压	-7981
▁非	-7982
息息	-7983
很好地	-7984
一同	-7985
备案	-7986
油脂	-7987
硬度	-7988
中共中央	-7989
教学方法	-7990
ww	-7991
钢筋	-7992
精神病	-7993
半个	-7994
成像	-7995
松弛	-7996
船舶	-7997
的人民	-7998
结构和	-7999
可以选择	-8000
制订	-8001
北洋	-8002
坚实	-8003
捕捉	-8004
电梯	-8005
服务业	-8006
建筑的	-8007
ment	-8008
▁事实上	-8009
一共	-8010
占了	-8011
历时	-8012
手的	-8013
潮流	-8014
真空	-8015
除外	-8016
控制的	-8017
hr	-8018
her	-8019
债务人	-8020
的好处	-8021
全球经济	-8022
宝贵	-8023
皇位	-8024
基础知识	-8025
凤凰	-8026
尿频	-8027
等都	-8028
表扬	-8029
全面的	-8030
抗氧化	-8031
很重要的	-8032
▁七	-8033
三分	-8034
产的	-8035
存放	-8036
需求的	-8037
不说	-8038
农作物	-8039
并通过	-8040
比较多	-8041
确定的	-8042
寻常	-8043
日内	-8044
正处于	-8045
空气中	-8046
等原因	-8047
都会有	-8048
生产经营	-8049
不分	-8050
登基	-8051
粽子	-8052
非物质文化遗产	-8053
强势	-8054
我对	-8055
着床	-8056
理解为	-8057
的病因	-8058
身为	-8059
长远	-8060
最后的	-8061
社会保险	-8062
场的	-8063
转折	-8064
不相同	-8065
在怀孕	-8066
地理位置	-8067
在高	-8068
迁徙	-8069
比较大	-8070
不准	-8071
乙烯	-8072
有用	-8073
状元	-8074
民事诉讼	-8075
内地	-8076
这块	-8077
一年级	-8078
的经验	-8079
类药物	-8080
传媒	-8081
拿着	-8082
月中	-8083
浸润	-8084
疑惑	-8085
粘液	-8086
丰富多彩	-8087
截止	-8088
最小	-8089
检索	-8090
透露	-8091
颠覆	-8092
▁何	-8093
抢救	-8094
配偶	-8095
和学生	-8096
容易导致	-8097
新冠肺炎	-8098
腰椎间盘突出	-8099
他为	-8100
冰箱	-8101
归属	-8102
愈合	-8103
穴位	-8104
已经在	-8105
愉悦	-8106
欺凌	-8107
仅次于	-8108
的种类	-8109
马拉	-8110
他们对	-8111
公布的	-8112
医院的	-8113
妈妈们	-8114
只有一个	-8115
(《	-8116
口的	-8117
空腹	-8118
李自成	-8119
的处理	-8120
运动员	-8121
小平	-8122
制定了	-8123
鼻子	-8124
那时候	-8125
重金属	-8126
▁...	-8127
留守	-8128
肾病	-8129
据统计	-8130
py	-8131
便会	-8132
值的	-8133
方程	-8134
赢得	-8135
名思义	-8136
境外	-8137
宝妈	-8138
资质	-8139
龙头	-8140
原材料	-8141
有很大	-8142
叙事	-8143
总督	-8144
杰出	-8145
类似的	-8146
情报	-8147
课前	-8148
酸奶	-8149
精神分裂症	-8150
另有	-8151
羊水	-8152
固定资产	-8153
所长	-8154
清醒	-8155
特质	-8156
组件	-8157
地进行	-8158
椎间盘	-8159
▁海	-8160
。【	-8161
中对	-8162
举例	-8163
企业和	-8164
的人类	-8165
乡镇	-8166
地铁	-8167
尊严	-8168
警告	-8169
造价	-8170
道家	-8171
食盐	-8172
消费者的	-8173
恐龙	-8174
振动	-8175
益生	-8176
古希腊	-8177
患病率	-8178
有力的	-8179
所产生的	-8180
旋律	-8181
无机	-8182
心血管疾病	-8183
▁按	-8184
前沿	-8185
已知	-8186
晚年	-8187
注明	-8188
在教学	-8189
的组织	-8190
)-	-8191
pd	-8192
▁问	-8193
但对	-8194
束缚	-8195
猪肉	-8196
停留在	-8197
复旦	-8198
直播	-8199
超市	-8200
大家的	-8201
是美国	-8202
短时间内	-8203
顾名思义	-8204
▁例	-8205
于一	-8206
到位	-8207
权限	-8208
罪的	-8209
高宗	-8210
件事情	-8211
侧面	-8212
前来	-8213
看得	-8214
近年	-8215
cpu	-8216
和精神	-8217
汉人	-8218
了他	-8219
就此	-8220
歧视	-8221
粗糙	-8222
▁使用	-8223
侵袭	-8224
其在	-8225
脓肿	-8226
也开始	-8227
军阀	-8228
日渐	-8229
显微	-8230
珍惜	-8231
波兰	-8232
ice	-8233
的吸收	-8234
经常会	-8235
是最好的	-8236
指甲	-8237
起伏	-8238
的日子	-8239
具有一定的	-8240
加州	-8241
政协	-8242
这么多	-8243
管理办法	-8244
土地使用权	-8245
严肃	-8246
占用	-8247
隋朝	-8248
雷达	-8249
需要在	-8250
向往	-8251
感应	-8252
要做	-8253
▁可以	-8254
高质量	-8255
高度重视	-8256
偏差	-8257
出示	-8258
机理	-8259
▁注意	-8260
身份证	-8261
更多的是	-8262
月经周期	-8263
历来	-8264
孙子	-8265
的生	-8266
繁多	-8267
课后	-8268
心理咨询	-8269
就读	-8270
蠕动	-8271
谈论	-8272
并且在	-8273
状态下	-8274
白内障	-8275
人造	-8276
制冷	-8277
校本	-8278
而知	-8279
虚弱	-8280
给他们	-8281
灿烂	-8282
牙龈	-8283
资讯	-8284
这在	-8285
斯科	-8286
我们来	-8287
的做法	-8288
我们现在	-8289
培养孩子的	-8290
lo	-8291
完了	-8292
的大量	-8293
累积	-8294
▁经过	-8295
bs	-8296
东坡	-8297
壮大	-8298
矿物	-8299
成长的	-8300
▁说	-8301
宦官	-8302
越来越高	-8303
us	-8304
得的	-8305
格外	-8306
清算	-8307
的所有	-8308
红细胞	-8309
而成的	-8310
mi	-8311
冷冻	-8312
脐带	-8313
降温	-8314
主要表现为	-8315
磷酸	-8316
就成了	-8317
是不能	-8318
的性质	-8319
独立思考	-8320
家居	-8321
清单	-8322
色泽	-8323
行人	-8324
的含义	-8325
试卷	-8326
长短	-8327
喜欢的	-8328
一个国家	-8329
多是	-8330
国际化	-8331
在日本	-8332
殖民地	-8333
教学内容	-8334
便捷	-8335
做得	-8336
旁边	-8337
这些人	-8338
▁时	-8339
永恒	-8340
蓬勃	-8341
逃避	-8342
幼儿的	-8343
no	-8344
大有	-8345
撰写	-8346
脓性	-8347
for	-8348
▁le	-8349
理解和	-8350
变性	-8351
暂停	-8352
心肌梗	-8353
男性的	-8354
原发性	-8355
可能有	-8356
小孩子	-8357
爱好者	-8358
的办法	-8359
br	-8360
咸丰	-8361
▁课程	-8362
书法家	-8363
下属	-8364
图画	-8365
完毕	-8366
实战	-8367
师资	-8368
腰痛	-8369
性行为	-8370
建筑面积	-8371
内科	-8372
口号	-8373
常务	-8374
碰到	-8375
话语	-8376
回国	-8377
碳酸	-8378
都将	-8379
希望能	-8380
自己在	-8381
五月	-8382
某某	-8383
题型	-8384
等各种	-8385
▁到	-8386
冲洗	-8387
列举	-8388
后方	-8389
回避	-8390
处方	-8391
中学生	-8392
久而	-8393
化解	-8394
清军	-8395
白酒	-8396
可以让	-8397
把自己的	-8398
新华	-8399
方法是	-8400
的事件	-8401
dl	-8402
元件	-8403
明天	-8404
不是很	-8405
容易出现	-8406
调查显示	-8407
▁宋	-8408
仓库	-8409
增殖	-8410
并以	-8411
打仗	-8412
思维能力	-8413
gl	-8414
友好	-8415
脱水	-8416
西哥	-8417
高危	-8418
也曾	-8419
包容	-8420
洪武	-8421
穿过	-8422
骨干	-8423
特色的	-8424
三天	-8425
之多	-8426
入选	-8427
人为本	-8428
城市化	-8429
股骨头坏死	-8430
无意	-8431
str	-8432
教科书	-8433
不可或缺	-8434
不被	-8435
吉祥	-8436
向外	-8437
无一	-8438
线索	-8439
职称	-8440
此时的	-8441
等疾病	-8442
最长	-8443
皇宫	-8444
而对	-8445
诗经	-8446
走到	-8447
▁针对	-8448
分析了	-8449
的记载	-8450
iz	-8451
文档	-8452
毁灭	-8453
特长	-8454
皇室	-8455
轮胎	-8456
▁还有	-8457
巧克力	-8458
充实	-8459
彼得	-8460
易经	-8461
解题	-8462
的一系列	-8463
产出	-8464
夸张	-8465
和行为	-8466
的成功	-8467
包围	-8468
景点	-8469
油价	-8470
潜艇	-8471
中国家	-8472
明确了	-8473
再生能源	-8474
作息	-8475
字体	-8476
被害	-8477
去看	-8478
发炎	-8479
植入	-8480
顺治	-8481
没想到	-8482
不觉	-8483
实务	-8484
▁通常	-8485
上半年	-8486
下方	-8487
双侧	-8488
细腻	-8489
认定为	-8490
开阔	-8491
拼音	-8492
纵横	-8493
全日制	-8494
精子的	-8495
之久	-8496
锈钢	-8497
发表在	-8498
出让	-8499
作出了	-8500
以及其他	-8501
多余	-8502
大明	-8503
美军	-8504
附着	-8505
▁面对	-8506
必须是	-8507
的儿童	-8508
表面的	-8509
之乱	-8510
但从	-8511
已是	-8512
因为他	-8513
本质上	-8514
心律	-8515
还将	-8516
冠状病毒	-8517
消化不良	-8518
▁+	-8519
亿吨	-8520
恐慌	-8521
ash	-8522
在不同	-8523
规律的	-8524
这三个	-8525
为代表的	-8526
农田	-8527
既要	-8528
阿里	-8529
一直到	-8530
构成的	-8531
的心态	-8532
约定的	-8533
大将	-8534
天国	-8535
玄宗	-8536
私有	-8537
自律	-8538
▁图片	-8539
勇气	-8540
接入	-8541
极限	-8542
绘制	-8543
学界	-8544
学费	-8545
尔哈	-8546
样式	-8547
蝴蝶	-8548
不注意	-8549
多名	-8550
裁判	-8551
适时	-8552
银行的	-8553
偿还	-8554
改良	-8555
陵墓	-8556
就是指	-8557
增进	-8558
大桥	-8559
脊椎	-8560
较强	-8561
不合理	-8562
半导体	-8563
勤奋	-8564
极度	-8565
▁上海	-8566
全面发展	-8567
bo	-8568
仍在	-8569
判定	-8570
剥夺	-8571
十月	-8572
哥哥	-8573
用作	-8574
告诉你	-8575
和工作	-8576
还是要	-8577
功臣	-8578
尴尬	-8579
崩溃	-8580
柴油	-8581
酸痛	-8582
魏晋	-8583
主要用于	-8584
三级	-8585
余额	-8586
总数	-8587
秦王	-8588
远古	-8589
间隙	-8590
内部的	-8591
▁如果你	-8592
fr	-8593
儿女	-8594
子上	-8595
断裂	-8596
狭义	-8597
仍然是	-8598
被视为	-8599
外形	-8600
扭转	-8601
草案	-8602
三月	-8603
八月	-8604
太原	-8605
弊端	-8606
管的	-8607
希特勒	-8608
在本	-8609
每位	-8610
做一些	-8611
许可证	-8612
领导者	-8613
关中	-8614
心力	-8615
桃花	-8616
民用	-8617
特别的	-8618
所以我们	-8619
为宜	-8620
变换	-8621
散热	-8622
棉花	-8623
迅猛	-8624
面貌	-8625
就是说	-8626
▁长	-8627
玫瑰	-8628
慈善	-8629
高热	-8630
最初的	-8631
的手段	-8632
行政机关	-8633
依赖于	-8634
继承人	-8635
其后	-8636
时应	-8637
望远	-8638
现货	-8639
瓶颈	-8640
臭氧	-8641
零食	-8642
基础教育	-8643
已经开始	-8644
管理人员	-8645
体征	-8646
插入	-8647
想起	-8648
率的	-8649
三角形	-8650
进出口	-8651
一般都是	-8652
安全教育	-8653
一号	-8654
之事	-8655
屠杀	-8656
还未	-8657
飞速	-8658
唐太宗	-8659
中东	-8660
留意	-8661
聊天	-8662
往来	-8663
鉴于	-8664
mac	-8665
墨西哥	-8666
万个	-8667
不予	-8668
恶意	-8669
泰国	-8670
go	-8671
一千	-8672
抱怨	-8673
机组	-8674
残酷	-8675
灌溉	-8676
着眼	-8677
防卫	-8678
可能的	-8679
疯狂	-8680
磨损	-8681
西瓜	-8682
与孩子	-8683
尤为重要	-8684
▁把	-8685
分级	-8686
演示	-8687
▁人类	-8688
无人机	-8689
为首	-8690
主权	-8691
线程	-8692
多元化	-8693
是企业	-8694
都不会	-8695
你就	-8696
流派	-8697
鸟类	-8698
单位的	-8699
建设工程	-8700
中发现	-8701
划分为	-8702
笔者认为	-8703
经济的发展	-8704
契丹	-8705
诊治	-8706
可靠性	-8707
成人的	-8708
而引起	-8709
公子	-8710
如图	-8711
定居	-8712
年被	-8713
忍受	-8714
或在	-8715
牢固	-8716
下一个	-8717
基金会	-8718
的几率	-8719
很强	-8720
赠与	-8721
重心	-8722
重要性	-8723
张力	-8724
抱着	-8725
渊源	-8726
了一场	-8727
野生动物	-8728
~~	-8729
城的	-8730
组长	-8731
刺激性	-8732
医疗机构	-8733
前所未有的	-8734
."	-8735
披露	-8736
是被	-8737
per	-8738
▁时间	-8739
▁社会	-8740
实施的	-8741
的地区	-8742
不禁	-8743
园区	-8744
国君	-8745
很久	-8746
穿着	-8747
譬如	-8748
也无法	-8749
德国的	-8750
发芽	-8751
少了	-8752
教练	-8753
清热	-8754
的山	-8755
眼中	-8756
调用	-8757
man	-8758
的开发	-8759
继发性	-8760
地表	-8761
加强对	-8762
▁初	-8763
不胜	-8764
击败	-8765
把他	-8766
此种	-8767
胸闷	-8768
趋于	-8769
stem	-8770
三位	-8771
应有	-8772
救助	-8773
格尔	-8774
首位	-8775
经营者	-8776
其中包括	-8777
反复发作	-8778
决议	-8779
取向	-8780
分析和	-8781
杰出的	-8782
的支持	-8783
管理局	-8784
卒中	-8785
同类	-8786
清淡	-8787
生死	-8788
的无	-8789
有一位	-8790
膝关节	-8791
班的	-8792
麻痹	-8793
最重要	-8794
没什么	-8795
的人数	-8796
thon	-8797
有害物质	-8798
天赋	-8799
引人	-8800
鼻窦	-8801
研讨会	-8802
清末	-8803
所带来的	-8804
陨石	-8805
句话说	-8806
忽略了	-8807
回升	-8808
平静	-8809
用到	-8810
真题	-8811
都与	-8812
包含了	-8813
房产税	-8814
提到的	-8815
存在的问题	-8816
五种	-8817
短缺	-8818
西斯	-8819
其原因	-8820
太阳系	-8821
光学	-8822
相近	-8823
讲授	-8824
迎接	-8825
▁阅读	-8826
可知	-8827
所学	-8828
精美	-8829
表皮	-8830
倾向于	-8831
总面积	-8832
目标是	-8833
在一定程度上	-8834
剖析	-8835
汽油	-8836
高铁	-8837
好奇心	-8838
的增加	-8839
的联系	-8840
就可以了	-8841
构件	-8842
独自	-8843
部分的	-8844
钢结构	-8845
治疗效果	-8846
随着年龄	-8847
在前	-8848
救援	-8849
欧阳	-8850
肥大	-8851
下面的	-8852
之类	-8853
减排	-8854
狮子	-8855
自闭症	-8856
名录	-8857
喂奶	-8858
今天就	-8859
在一些	-8860
▁开	-8861
喷嚏	-8862
左侧	-8863
排斥	-8864
完美的	-8865
当孩子	-8866
教育局	-8867
国立	-8868
填写	-8869
袁绍	-8870
英国的	-8871
有所不同	-8872
扭曲	-8873
率高	-8874
生意	-8875
者为	-8876
等领域	-8877
结束了	-8878
化学物质	-8879
个国家	-8880
引发了	-8881
咀嚼	-8882
应以	-8883
很低	-8884
扁平	-8885
接地	-8886
纵观	-8887
造血	-8888
最容易	-8889
有名的	-8890
三千	-8891
中耳	-8892
安慰	-8893
私立	-8894
水和	-8895
迟缓	-8896
和新	-8897
天生	-8898
嵌入	-8899
撞击	-8900
如何在	-8901
流行病	-8902
工业革命	-8903
中性	-8904
六十	-8905
同行	-8906
都属于	-8907
自古以来	-8908
丽的	-8909
久坐	-8910
方言	-8911
是把	-8912
门口	-8913
min	-8914
当地的	-8915
学习习惯	-8916
亿人	-8917
儒学	-8918
查阅	-8919
甲亢	-8920
外面	-8921
的成本	-8922
形成一个	-8923
半球	-8924
了一种	-8925
的水平	-8926
▁ser	-8927
做人	-8928
推测	-8929
跟大家	-8930
其一	-8931
年中	-8932
瘫痪	-8933
种族	-8934
所有人	-8935
子宫内膜异位	-8936
一口	-8937
发扬	-8938
皮下	-8939
使他们	-8940
命名为	-8941
报记者	-8942
老龄化	-8943
出具	-8944
等奖	-8945
和教育	-8946
还是在	-8947
从根本上	-8948
像是	-8949
安全感	-8950
▁赵	-8951
感官	-8952
我们都知道	-8953
主编	-8954
浸泡	-8955
热闹	-8956
队员	-8957
ics	-8958
最重要的是	-8959
名著	-8960
地利	-8961
的海	-8962
性激素	-8963
ds	-8964
任职	-8965
增添	-8966
愤怒	-8967
菌群	-8968
的儿子	-8969
选择的	-8970
功劳	-8971
局势	-8972
放心	-8973
诱惑	-8974
ack	-8975
正是因为	-8976
不定	-8977
幻想	-8978
时不	-8979
曹魏	-8980
爱护	-8981
人物的	-8982
应有的	-8983
"!	-8984
却在	-8985
ase	-8986
▁他们	-8987
的一位	-8988
▁文章	-8989
组织和	-8990
久而久之	-8991
研究显示	-8992
un	-8993
出处	-8994
甘油	-8995
这部	-8996
其中有	-8997
三叉	-8998
也好	-8999
市区	-9000
治病	-9001
绿茶	-9002
诗文	-9003
看上去	-9004
儿科	-9005
复试	-9006
身材	-9007
是这样	-9008
荨麻疹	-9009
各界	-9010
简洁	-9011
门窗	-9012
到底是	-9013
最主要	-9014
为你	-9015
倡议	-9016
次的	-9017
陷阱	-9018
与学生	-9019
污染的	-9020
应是	-9021
法庭	-9022
羽毛	-9023
都非常	-9024
刷牙	-9025
少儿	-9026
群岛	-9027
ber	-9028
处理的	-9029
小时内	-9030
专家指出	-9031
最大限度	-9032
不为	-9033
拉丁	-9034
获利	-9035
全社会	-9036
帝国的	-9037
投资的	-9038
公共卫生	-9039
名家	-9040
就好	-9041
碎片	-9042
童话	-9043
西湖	-9044
重阳	-9045
出生的	-9046
月经不	-9047
电动车	-9048
说的是	-9049
中国社会	-9050
削弱	-9051
第九	-9052
缺口	-9053
寄生虫	-9054
长时间的	-9055
严禁	-9056
光泽	-9057
它与	-9058
睡前	-9059
思想政治	-9060
教育孩子	-9061
不顾	-9062
天主	-9063
有余	-9064
突厥	-9065
脑瘫	-9066
量大	-9067
是十分	-9068
实体经济	-9069
科学发展	-9070
应该如何	-9071
定量	-9072
村落	-9073
第十	-9074
对社会	-9075
富贵	-9076
武王	-9077
留下的	-9078
说明了	-9079
战士	-9080
笔画	-9081
不做	-9082
果树	-9083
大城市	-9084
对这些	-9085
层面的	-9086
看不到	-9087
规定了	-9088
有不同的	-9089
一杯	-9090
手臂	-9091
提炼	-9092
自来	-9093
并不会	-9094
的病人	-9095
益生菌	-9096
压抑	-9097
都说	-9098
饭后	-9099
主持人	-9100
努尔哈	-9101
▁后	-9102
上级	-9103
不听	-9104
不让	-9105
动词	-9106
双向	-9107
拆除	-9108
着急	-9109
骄傲	-9110
不适合	-9111
多样的	-9112
最新的	-9113
品格	-9114
脑部	-9115
谓之	-9116
逆转	-9117
寓意	-9118
该病	-9119
道光	-9120
不少人	-9121
会议上	-9122
作品的	-9123
红楼梦	-9124
红斑	-9125
课上	-9126
陈列	-9127
增长率	-9128
ical	-9129
aa	-9130
断奶	-9131
时就	-9132
是其	-9133
秦汉	-9134
单纯的	-9135
▁z	-9136
▁老	-9137
估值	-9138
流血	-9139
骨盆	-9140
胎儿的	-9141
教学目标	-9142
ian	-9143
▁te	-9144
以前的	-9145
国内的	-9146
努尔哈赤	-9147
大海	-9148
射线	-9149
震惊	-9150
的改变	-9151
还有很多	-9152
qq	-9153
轰炸	-9154
不了解	-9155
保护区	-9156
药物的	-9157
都必须	-9158
同伴	-9159
收回	-9160
本草	-9161
样品	-9162
永乐	-9163
防晒	-9164
不平衡	-9165
那么多	-9166
每人	-9167
补钙	-9168
▁专业	-9169
是不可	-9170
清明节	-9171
制药	-9172
感慨	-9173
一下子	-9174
看电视	-9175
运营商	-9176
妇科疾病	-9177
剩下	-9178
登陆	-9179
轨迹	-9180
陈述	-9181
小小的	-9182
每一次	-9183
短期内	-9184
代表大会	-9185
东亚	-9186
幸运	-9187
一些人	-9188
发表了	-9189
理论的	-9190
流感病毒	-9191
过敏性鼻炎	-9192
一律	-9193
三类	-9194
则为	-9195
号召	-9196
圣人	-9197
终结	-9198
语句	-9199
岁以下	-9200
之子	-9201
亲密	-9202
大同	-9203
纸上	-9204
高潮	-9205
可能出现	-9206
中美	-9207
供血	-9208
共计	-9209
尺度	-9210
造影	-9211
也因此	-9212
领导的	-9213
鼻塞	-9214
▁问题	-9215
对应的	-9216
应用的	-9217
有哪些呢	-9218
右侧	-9219
国企	-9220
夺取	-9221
始祖	-9222
菩提	-9223
蜜蜂	-9224
损害赔偿	-9225
登上	-9226
紧紧	-9227
阴影	-9228
专门的	-9229
即便是	-9230
平时的	-9231
不一样的	-9232
我们的生活	-9233
流畅	-9234
背面	-9235
般的	-9236
外资	-9237
大面积	-9238
接纳	-9239
礼物	-9240
阻断	-9241
世代	-9242
医保	-9243
可爱	-9244
山上	-9245
斯大	-9246
无处	-9247
租金	-9248
但对于	-9249
和他的	-9250
局限性	-9251
现实的	-9252
的高低	-9253
ee	-9254
回复	-9255
板的	-9256
雅思	-9257
ace	-9258
路由器	-9259
好事	-9260
得益	-9261
掌控	-9262
演出	-9263
真诚	-9264
违规	-9265
▁历史	-9266
世界各国	-9267
个股	-9268
商家	-9269
溶剂	-9270
的含量	-9271
▁若	-9272
之气	-9273
姑娘	-9274
而得名	-9275
思维方式	-9276
毛病	-9277
氏族	-9278
水面	-9279
法和	-9280
思想家	-9281
最后一个	-9282
空气质量	-9283
oh	-9284
幽默	-9285
征税	-9286
忠诚	-9287
通畅	-9288
第三个	-9289
世界经济	-9290
市场营销	-9291
南下	-9292
得上	-9293
自称	-9294
至此	-9295
萌芽	-9296
▁内容	-9297
统计局	-9298
生态文明	-9299
山大	-9300
延缓	-9301
总会	-9302
所用	-9303
世纪末	-9304
也有人	-9305
营养物质	-9306
▁因	-9307
彰显	-9308
生机	-9309
裁定	-9310
系统和	-9311
高速公路	-9312
农耕	-9313
赶紧	-9314
这点	-9315
隋唐	-9316
附近的	-9317
中的一个	-9318
妨碍	-9319
放缓	-9320
相邻	-9321
从这个	-9322
对企业	-9323
容易引起	-9324
二世	-9325
佛像	-9326
助力	-9327
华盛	-9328
受限	-9329
回流	-9330
底蕴	-9331
不属于	-9332
就会导致	-9333
几千	-9334
北斗	-9335
口感	-9336
它能	-9337
评审	-9338
▁人们	-9339
文化和	-9340
普洱茶	-9341
的网络	-9342
博弈	-9343
我说	-9344
李渊	-9345
编译	-9346
释迦	-9347
log	-9348
孕妈妈	-9349
局限于	-9350
的中心	-9351
受到影响	-9352
中去	-9353
城堡	-9354
汉中	-9355
可谓是	-9356
商学院	-9357
银行业	-9358
在职	-9359
昆明	-9360
iii	-9361
岁左右	-9362
宏观经济	-9363
号称	-9364
打工	-9365
枯燥	-9366
通行	-9367
速率	-9368
了不少	-9369
所需要的	-9370
现代社会	-9371
文物保护单位	-9372
一小	-9373
估算	-9374
善良	-9375
擅自	-9376
笔墨	-9377
为他	-9378
早年	-9379
立案	-9380
镇压	-9381
也包括	-9382
的功效	-9383
的民族	-9384
劳动关系	-9385
▁经	-9386
林业	-9387
水库	-9388
辣椒	-9389
age	-9390
只是在	-9391
繁衍	-9392
达标	-9393
▁没有	-9394
下一步	-9395
就能够	-9396
正因为	-9397
自然科学	-9398
在该	-9399
而易	-9400
薄膜	-9401
司马迁	-9402
日下午	-9403
的一面	-9404
你能	-9405
兵马	-9406
开车	-9407
浪潮	-9408
父子	-9409
线下	-9410
静电	-9411
也应该	-9412
无疑是	-9413
我们必须	-9414
▁阿	-9415
先秦	-9416
商鞅	-9417
国产	-9418
并购	-9419
派出	-9420
演绎	-9421
狗狗	-9422
稀释	-9423
赞美	-9424
这对于	-9425
新中国成立	-9426
保全	-9427
周末	-9428
录音	-9429
德军	-9430
数千	-9431
理性的	-9432
▁两	-9433
一台	-9434
价的	-9435
精致	-9436
大幅度	-9437
五四	-9438
亮点	-9439
课的	-9440
都没	-9441
利用率	-9442
员工的	-9443
正常情况下	-9444
也应	-9445
总值	-9446
等同	-9447
▁ne	-9448
内心的	-9449
高科技	-9450
间歇	-9451
ame	-9452
的道路	-9453
化为	-9454
红茶	-9455
多动症	-9456
性病	-9457
▁tr	-9458
思维的	-9459
商业模式	-9460
全力	-9461
工序	-9462
拉动	-9463
母体	-9464
线性	-9465
不再是	-9466
博物院	-9467
mp	-9468
修剪	-9469
发光	-9470
多在	-9471
失误	-9472
合作学习	-9473
▁八	-9474
做成	-9475
华东	-9476
▁父母	-9477
达不到	-9478
可能会导致	-9479
佛陀	-9480
吸毒	-9481
在做	-9482
心跳	-9483
美德	-9484
妊娠期	-9485
的国际	-9486
农民起义	-9487
你是	-9488
袭击	-9489
说来	-9490
长河	-9491
的任务	-9492
一举	-9493
一味	-9494
二维	-9495
全局	-9496
平定	-9497
开封	-9498
招收	-9499
oll	-9500
▁许多	-9501
我们先	-9502
持续性	-9503
望远镜	-9504
地势	-9505
带给	-9506
华盛顿	-9507
接受了	-9508
▁让	-9509
全书	-9510
炎等	-9511
长得	-9512
产阶级	-9513
受欢迎	-9514
方法的	-9515
等特点	-9516
自由基	-9517
不爱	-9518
学金	-9519
情趣	-9520
要件	-9521
房地产市场	-9522
唯有	-9523
大理	-9524
注释	-9525
最主要的	-9526
。[	-9527
分区	-9528
床上	-9529
推迟	-9530
电线	-9531
处理器	-9532
的形象	-9533
▁在中国	-9534
会把	-9535
保暖	-9536
出不	-9537
唯物	-9538
国情	-9539
不动产	-9540
完善的	-9541
的代表	-9542
▁徐	-9543
▁读	-9544
二字	-9545
头上	-9546
转动	-9547
年轻的	-9548
用户的	-9549
陕西省	-9550
fi	-9551
公有	-9552
太监	-9553
过失	-9554
▁be	-9555
五百	-9556
全文	-9557
秋天	-9558
是根据	-9559
毛主席	-9560
多大	-9561
多家	-9562
破解	-9563
隧道	-9564
与实践	-9565
两部分	-9566
习近平总书记	-9567
中全	-9568
整治	-9569
澳洲	-9570
情商	-9571
源泉	-9572
要以	-9573
hz	-9574
一群	-9575
孩子们的	-9576
啤酒	-9577
多有	-9578
学到	-9579
画画	-9580
客户端	-9581
设计和	-9582
企业管理	-9583
一二	-9584
客体	-9585
并与	-9586
诠释	-9587
总经理	-9588
查找	-9589
管控	-9590
辛亥	-9591
简要	-9592
迷信	-9593
都比较	-9594
到底是什么	-9595
六大	-9596
区间	-9597
太过	-9598
宠物	-9599
的整体	-9600
其中一个	-9601
中和	-9602
之所	-9603
小康	-9604
猝死	-9605
芬兰	-9606
遍布	-9607
颇有	-9608
必要时	-9609
卵巢囊肿	-9610
带孩子	-9611
是一座	-9612
都是由	-9613
征求意见	-9614
爱国主义	-9615
厦门	-9616
晚清	-9617
粉尘	-9618
还应	-9619
在与	-9620
是说	-9621
见过	-9622
▁说到	-9623
换句话说	-9624
用自己的	-9625
可再生能源	-9626
入了	-9627
或少	-9628
新颖	-9629
合同法	-9630
中华民国	-9631
医疗保险	-9632
指导意见	-9633
生活质量	-9634
势必	-9635
宽度	-9636
繁华	-9637
肛裂	-9638
葫芦	-9639
可以直接	-9640
之二	-9641
之作	-9642
庄子	-9643
春风	-9644
盗窃	-9645
能为	-9646
其次是	-9647
和心理	-9648
常委会	-9649
处分	-9650
普查	-9651
期权	-9652
消退	-9653
之于	-9654
ock	-9655
手下	-9656
的白	-9657
不低于	-9658
主要以	-9659
分数线	-9660
刹车	-9661
构思	-9662
的皇帝	-9663
化肥	-9664
杜绝	-9665
口径	-9666
性腺	-9667
板上	-9668
溶性	-9669
礼貌	-9670
不锈钢	-9671
发出的	-9672
媒体的	-9673
的情形	-9674
的特殊	-9675
灵感	-9676
点评	-9677
虫害	-9678
从一个	-9679
发挥了	-9680
报告中	-9681
右脑	-9682
拇指	-9683
校区	-9684
颅内	-9685
一年的	-9686
责任感	-9687
选择题	-9688
▁好	-9689
包裹	-9690
悬挂	-9691
接到	-9692
新区	-9693
终生	-9694
与管理	-9695
▁九	-9696
做为	-9697
叛乱	-9698
选题	-9699
钓鱼	-9700
极大地	-9701
定制	-9702
应力	-9703
是他	-9704
河道	-9705
海域	-9706
hiv	-9707
也随之	-9708
病毒性	-9709
而产生	-9710
让大家	-9711
光源	-9712
存的	-9713
火花	-9714
玉器	-9715
▁en	-9716
科技创新	-9717
当做	-9718
抵制	-9719
牵引	-9720
ong	-9721
母亲的	-9722
但是如果	-9723
ts	-9724
▁现	-9725
压痛	-9726
地名	-9727
多达	-9728
宫内	-9729
投标	-9730
教学模式	-9731
宁波	-9732
师的	-9733
必修	-9734
横向	-9735
花钱	-9736
遗忘	-9737
零件	-9738
鼻涕	-9739
ark	-9740
针对性	-9741
子弟	-9742
摄氏	-9743
极具	-9744
毛巾	-9745
牙周	-9746
脉络	-9747
豆类	-9748
进取	-9749
在经济	-9750
为什么呢	-9751
让孩子们	-9752
根治	-9753
量和	-9754
也成为	-9755
邓小平	-9756
因为他们	-9757
学校教育	-9758
智能手机	-9759
】:	-9760
可供	-9761
和他	-9762
奇特	-9763
奠基	-9764
小事	-9765
明亮	-9766
死亡的	-9767
容易发生	-9768
养育	-9769
安石	-9770
而上	-9771
吸取	-9772
崇尚	-9773
已久	-9774
陆地	-9775
又称为	-9776
容易被	-9777
血液中	-9778
一个问题	-9779
公顷	-9780
军人	-9781
月饼	-9782
游离	-9783
借款人	-9784
全国各地	-9785
ak	-9786
位居	-9787
言行	-9788
误差	-9789
可能与	-9790
定义为	-9791
核桃	-9792
的内	-9793
红外	-9794
辩论	-9795
价格的	-9796
第一步	-9797
原名	-9798
理学	-9799
吸引力	-9800
在日常生活中	-9801
一手	-9802
姐妹	-9803
投保	-9804
美容	-9805
脉冲	-9806
衰落	-9807
空间的	-9808
一所	-9809
产于	-9810
元帅	-9811
公交	-9812
对该	-9813
常年	-9814
泄漏	-9815
问卷	-9816
两大类	-9817
在治疗	-9818
最基本的	-9819
千瓦	-9820
治安	-9821
满了	-9822
可用于	-9823
进入到	-9824
cn	-9825
为大	-9826
西夏	-9827
金山	-9828
分布于	-9829
秘书长	-9830
那个时候	-9831
人也	-9832
再度	-9833
夜晚	-9834
开口	-9835
肌肤	-9836
践行	-9837
鼎盛	-9838
斯大林	-9839
有机会	-9840
都具有	-9841
不断发展	-9842
重要意义	-9843
加班	-9844
同盟	-9845
唐宋	-9846
居家	-9847
担当	-9848
这篇	-9849
▁中医	-9850
的理念	-9851
事后	-9852
供水	-9853
印发	-9854
影片	-9855
液化	-9856
烈的	-9857
耐药	-9858
迫使	-9859
▁传统	-9860
可以把	-9861
感染的	-9862
战后	-9863
根基	-9864
细分	-9865
cpi	-9866
刑事责任	-9867
却不	-9868
土耳	-9869
有意	-9870
烈士	-9871
震撼	-9872
地中海	-9873
没有了	-9874
的课程	-9875
食物的	-9876
尽量避免	-9877
vr	-9878
升学	-9879
并用	-9880
拿出	-9881
政务	-9882
楼市	-9883
浏览器	-9884
但是由于	-9885
风暴	-9886
作用于	-9887
交通运输	-9888
人称	-9889
强行	-9890
感叹	-9891
党中央	-9892
主要为	-9893
化妆品	-9894
在实际	-9895
新一代	-9896
则会	-9897
又被	-9898
唾液	-9899
多项	-9900
学分	-9901
来做	-9902
在没有	-9903
的战略	-9904
国有企业	-9905
必不可少的	-9906
几位	-9907
判处	-9908
快捷	-9909
承租	-9910
逝世	-9911
以人为本	-9912
下调	-9913
强盛	-9914
生化	-9915
自理	-9916
不仅能	-9917
神经根	-9918
被告人	-9919
不平	-9920
之父	-9921
降至	-9922
新一轮	-9923
伴侣	-9924
局长	-9925
幽门	-9926
植树	-9927
不舒服	-9928
更多地	-9929
农场	-9930
冷静	-9931
眩晕	-9932
绍兴	-9933
网民	-9934
和应用	-9935
和研究	-9936
的真实	-9937
转移到	-9938
容易造成	-9939
下垂	-9940
乳酸	-9941
何处	-9942
嘉靖	-9943
对接	-9944
数码	-9945
灵敏	-9946
危险的	-9947
和企业	-9948
天下的	-9949
手足口	-9950
整体的	-9951
操纵	-9952
正统	-9953
出来了	-9954
哈尔滨	-9955
第一批	-9956
网络上	-9957
技术的发展	-9958
不绝	-9959
企图	-9960
可将	-9961
人与人	-9962
关税	-9963
国际上	-9964
在家里	-9965
是学生	-9966
司法解释	-9967
出入	-9968
取出	-9969
erp	-9970
要根据	-9971
息息相关	-9972
hg	-9973
一行	-9974
止血	-9975
▁he	-9976
抑制剂	-9977
▁被	-9978
去的	-9979
子和	-9980
学堂	-9981
继而	-9982
药用	-9983
虽说	-9984
食道	-9985
了一下	-9986
出版的	-9987
第三次	-9988
系统性	-9989
课程的	-9990
若干问题的	-9991
光纤	-9992
其间	-9993
力求	-9994
获奖	-9995
马来	-9996
综合素质	-9997
保密	-9998
小鼠	-9999
并于	-10000
开来	-10001
窗户	-10002
红利	-10003
胆汁	-10004
副教授	-10005
尤其在	-10006
信息系统	-10007
多多	-10008
▁一般来说	-10009
动员	-10010
又不	-10011
家庄	-10012
下一代	-10013
普通人	-10014
有一次	-10015
三国演义	-10016
亚硝	-10017
日在	-10018
星球	-10019
脱发	-10020
领悟	-10021
以及对	-10022
太平天国	-10023
曲折	-10024
杀人	-10025
观的	-10026
so	-10027
元旦	-10028
好友	-10029
就行	-10030
微软	-10031
灰色	-10032
起初	-10033
遏制	-10034
纤维素	-10035
又在	-10036
可能在	-10037
植物的	-10038
镜检查	-10039
年均	-10040
托福	-10041
最先	-10042
以至	-10043
何况	-10044
降解	-10045
在过去	-10046
实现的	-10047
常说的	-10048
违法行为	-10049
人力资源管理	-10050
之势	-10051
大声	-10052
想着	-10053
眼的	-10054
粥样	-10055
针刺	-10056
香蕉	-10057
忽视了	-10058
纪念馆	-10059
经济效益	-10060
这样可以	-10061
割据	-10062
威尔	-10063
还得	-10064
和环境	-10065
土耳其	-10066
奥运会	-10067
理解的	-10068
持续时间	-10069
强劲	-10070
打下	-10071
眼科	-10072
说道	-10073
什么样	-10074
医学上	-10075
对象的	-10076
都有哪些	-10077
专心	-10078
卧床	-10079
唐诗	-10080
必将	-10081
曝光	-10082
者按	-10083
顶部	-10084
ans	-10085
ork	-10086
年第	-10087
心动	-10088
监察	-10089
继发	-10090
ast	-10091
全方位	-10092
实际上是	-10093
仔猪	-10094
圆满	-10095
银河	-10096
了大量	-10097
亲近	-10098
四处	-10099
地在	-10100
波罗	-10101
起病	-10102
躯体	-10103
的建议	-10104
也是如此	-10105
之名	-10106
导管	-10107
所属	-10108
窒息	-10109
高分	-10110
了一次	-10111
安全生产	-10112
当事人的	-10113
纹饰	-10114
隐形	-10115
非常有	-10116
针对性的	-10117
产前	-10118
史称	-10119
战的	-10120
求知	-10121
高三	-10122
法律的	-10123
中级	-10124
墙体	-10125
钥匙	-10126
高尚	-10127
的一点	-10128
的材料	-10129
这不是	-10130
风险的	-10131
公约	-10132
摧毁	-10133
▁公元	-10134
是完全	-10135
不含	-10136
不着	-10137
剪纸	-10138
装配	-10139
来到了	-10140
怎样才能	-10141
执业	-10142
短线	-10143
老鼠	-10144
输液	-10145
十三五	-10146
反映出	-10147
的温度	-10148
身上的	-10149
传统节日	-10150
要求学生	-10151
现实生活中	-10152
以下有期徒刑	-10153
克里	-10154
终极	-10155
在此基础上	-10156
长子	-10157
在历史上	-10158
▁爱	-10159
体型	-10160
花鸟	-10161
血红	-10162
现代人	-10163
可以使用	-10164
数据分析	-10165
不息	-10166
兼顾	-10167
曹丕	-10168
小伙伴	-10169
有的是	-10170
的象征	-10171
法兰	-10172
留言	-10173
积液	-10174
脏腑	-10175
▁ex	-10176
慢性病	-10177
疫情防控	-10178
的治疗方法	-10179
▁单	-10180
再现	-10181
后裔	-10182
文体	-10183
磁场	-10184
触及	-10185
大多是	-10186
展示了	-10187
角度看	-10188
fa	-10189
▁又	-10190
▁朱	-10191
下一	-10192
不便	-10193
制动	-10194
退化	-10195
军官	-10196
执照	-10197
点燃	-10198
耳聋	-10199
诵读	-10200
不允许	-10201
体会到	-10202
犯罪的	-10203
的心情	-10204
特别注意	-10205
大米	-10206
错的	-10207
直肠癌	-10208
上层	-10209
昼夜	-10210
病死	-10211
议论	-10212
露出	-10213
增长的	-10214
这种方式	-10215
天后	-10216
好多	-10217
早熟	-10218
风电	-10219
浓郁	-10220
创新能力	-10221
家庭成员	-10222
优于	-10223
斯的	-10224
炎性	-10225
的先	-10226
精髓	-10227
额度	-10228
不足以	-10229
年我国	-10230
探测器	-10231
的发病	-10232
这其中	-10233
不服	-10234
共振	-10235
坚硬	-10236
扁桃	-10237
满清	-10238
皮疹	-10239
创造的	-10240
就可能	-10241
是导致	-10242
质量和	-10243
这方面的	-10244
▁同	-10245
不合	-10246
小镇	-10247
是多	-10248
盆地	-10249
高位	-10250
与他人	-10251
排卵期	-10252
经验和	-10253
社会保障	-10254
的重要原因	-10255
古迹	-10256
石灰	-10257
要看	-10258
资深	-10259
辨证	-10260
顶尖	-10261
鲜艳	-10262
共同体	-10263
能量的	-10264
鲜明的	-10265
朝的	-10266
次年	-10267
每当	-10268
消炎	-10269
能让	-10270
规避	-10271
ser	-10272
不及时	-10273
业界	-10274
北美	-10275
尿路	-10276
毛囊	-10277
汉书	-10278
理科	-10279
辅佐	-10280
▁具体	-10281
交易的	-10282
▁大家好	-10283
上行	-10284
停留	-10285
油漆	-10286
聆听	-10287
di	-10288
上所	-10289
八大	-10290
减小	-10291
皮炎	-10292
不明显	-10293
为国家	-10294
在教育	-10295
层次的	-10296
被认为	-10297
告诉记者	-10298
月经不调	-10299
研究结果	-10300
的重要因素	-10301
发改	-10302
构图	-10303
看过	-10304
花粉	-10305
些什么	-10306
年全国	-10307
变压	-10308
手脚	-10309
母婴	-10310
王莽	-10311
追踪	-10312
量为	-10313
对人的	-10314
女生	-10315
指责	-10316
画像	-10317
走廊	-10318
等现象	-10319
中国文化	-10320
大规模的	-10321
人民检察院	-10322
企业所得税	-10323
文王	-10324
mat	-10325
vel	-10326
作用下	-10327
显示出	-10328
经济发展的	-10329
ec	-10330
▁做	-10331
抽烟	-10332
欺骗	-10333
猜测	-10334
西晋	-10335
贫穷	-10336
水平和	-10337
生态系统	-10338
中国历史上	-10339
分明	-10340
学子	-10341
景色	-10342
白斑	-10343
看成	-10344
莲花	-10345
趋向	-10346
是属于	-10347
一直以来	-10348
临近	-10349
又会	-10350
合格的	-10351
新西兰	-10352
的一半	-10353
专业知识	-10354
是非常重要的	-10355
la	-10356
助理	-10357
折磨	-10358
改正	-10359
阳市	-10360
两个月	-10361
的公司	-10362
要做到	-10363
▁常	-10364
导语	-10365
收复	-10366
震荡	-10367
合作社	-10368
正常人	-10369
细菌性	-10370
被发现	-10371
有关规定	-10372
保管	-10373
放电	-10374
熏陶	-10375
的最新	-10376
问题上	-10377
体育锻炼	-10378
机器学习	-10379
sa	-10380
出席	-10381
匡胤	-10382
可视	-10383
国旗	-10384
感性	-10385
本国	-10386
耽误	-10387
肝病	-10388
其他人	-10389
比较高	-10390
的部位	-10391
兼容	-10392
分封	-10393
初年	-10394
即在	-10395
射精	-10396
投影	-10397
果汁	-10398
深层	-10399
自此	-10400
香味	-10401
▁第五	-10402
准确地	-10403
不怕	-10404
嘉宾	-10405
滞后	-10406
连锁	-10407
默认	-10408
典范	-10409
总裁	-10410
细心	-10411
言论	-10412
和控制	-10413
当年的	-10414
代表性的	-10415
就是我们	-10416
细菌感染	-10417
弥漫	-10418
无非	-10419
栏目	-10420
质性	-10421
跨国	-10422
十二五	-10423
目前我国	-10424
▁苏	-10425
坐标	-10426
避开	-10427
钻石	-10428
▁nd	-10429
保持在	-10430
有机物	-10431
类风湿	-10432
动脉硬化	-10433
一心	-10434
阴性	-10435
各自的	-10436
就会有	-10437
等相关	-10438
毛细血管	-10439
积极参与	-10440
来历	-10441
概况	-10442
沉重	-10443
长约	-10444
代理人	-10445
少年的	-10446
专家介绍	-10447
供奉	-10448
天皇	-10449
番茄	-10450
篮球	-10451
脏器	-10452
说服	-10453
型肝炎	-10454
学会了	-10455
工作室	-10456
生产和	-10457
精神和	-10458
▁东	-10459
万年	-10460
吃得	-10461
胃酸	-10462
花朵	-10463
史上的	-10464
看不见	-10465
都可能	-10466
▁man	-10467
分期	-10468
变质	-10469
喜悦	-10470
图中	-10471
荧光	-10472
降息	-10473
制作的	-10474
的大型	-10475
就是为了	-10476
产科	-10477
他也	-10478
受阻	-10479
岛屿	-10480
形体	-10481
循序	-10482
微波	-10483
起兵	-10484
▁不要	-10485
拥有的	-10486
发育不良	-10487
管理工作	-10488
一定程度上	-10489
家务	-10490
平滑	-10491
朝政	-10492
脚步	-10493
呼吸道感染	-10494
中亚	-10495
了大	-10496
侵蚀	-10497
多于	-10498
想必	-10499
简易	-10500
绒毛	-10501
自立	-10502
我们会	-10503
的能量	-10504
青铜器	-10505
▁能	-10506
吃药	-10507
有大	-10508
直辖	-10509
订单	-10510
都对	-10511
饮茶	-10512
ide	-10513
▁预防	-10514
产业化	-10515
的父亲	-10516
个字	-10517
使者	-10518
整天	-10519
既能	-10520
点和	-10521
的非	-10522
如果您	-10523
性贫血	-10524
殊不知	-10525
比较好	-10526
湖北省	-10527
消防安全	-10528
在这种情况下	-10529
匮乏	-10530
古镇	-10531
居易	-10532
淋漓	-10533
评分	-10534
早期症状	-10535
多年的历史	-10536
三四	-10537
徽宗	-10538
比起	-10539
田园	-10540
胶原	-10541
智慧的	-10542
几乎没有	-10543
子宫内膜炎	-10544
乘坐	-10545
八卦	-10546
我会	-10547
氯化	-10548
没能	-10549
浓缩	-10550
电能	-10551
的诊断	-10552
帮助学生	-10553
亦有	-10554
会阴	-10555
兵器	-10556
未知	-10557
省市	-10558
自豪	-10559
调和	-10560
贴近	-10561
较轻	-10562
酸碱	-10563
接触到	-10564
日上午	-10565
证明了	-10566
电子产品	-10567
台阶	-10568
右手	-10569
墓葬	-10570
教养	-10571
以达到	-10572
想象的	-10573
就是一种	-10574
华人	-10575
推移	-10576
杂交	-10577
污泥	-10578
的人文	-10579
的音乐	-10580
行为人	-10581
过去了	-10582
斯拉	-10583
杜鹃	-10584
此处	-10585
ial	-10586
▁sh	-10587
保护的	-10588
岁以后	-10589
是基于	-10590
意识形态	-10591
交感	-10592
复印	-10593
潜移	-10594
的常见	-10595
▁实际上	-10596
世家	-10597
刺史	-10598
南极	-10599
同性	-10600
徐州	-10601
简便	-10602
肥沃	-10603
品的	-10604
守护	-10605
海峡	-10606
液压	-10607
诚实	-10608
谷歌	-10609
都可	-10610
不具备	-10611
地球的	-10612
惊人的	-10613
投资人	-10614
时间为	-10615
电视台	-10616
世界上最	-10617
交谈	-10618
寄托	-10619
忘了	-10620
重用	-10621
经历过	-10622
▁石	-10623
叛逆	-10624
无声	-10625
访谈	-10626
车主	-10627
高大	-10628
的新型	-10629
乐于	-10630
演员	-10631
里有	-10632
额外	-10633
毫无疑	-10634
但实际上	-10635
me	-10636
君王	-10637
困难的	-10638
专家表示	-10639
克斯	-10640
十万	-10641
干涉	-10642
实际的	-10643
慢慢的	-10644
规模的	-10645
速度快	-10646
不知不觉	-10647
他所	-10648
吕布	-10649
柏林	-10650
民居	-10651
清新	-10652
这片	-10653
默默	-10654
▁bl	-10655
心中的	-10656
学习方法	-10657
知识分子	-10658
卡尔	-10659
地将	-10660
大盘	-10661
展望	-10662
微创	-10663
拯救	-10664
海底	-10665
消瘦	-10666
源地	-10667
破碎	-10668
隐蔽	-10669
▁于是	-10670
普通话	-10671
临床试验	-10672
也越来越	-10673
美术学院	-10674
了几	-10675
后遗	-10676
片段	-10677
中国画	-10678
利益的	-10679
潜移默	-10680
中国人的	-10681
不齐	-10682
审视	-10683
开的	-10684
无忧	-10685
泄露	-10686
漫画	-10687
外贸	-10688
畜牧	-10689
相通	-10690
督促	-10691
荷尔	-10692
间断	-10693
万美元	-10694
大约有	-10695
看一下	-10696
进行检查	-10697
坚守	-10698
契约	-10699
小便	-10700
极少	-10701
气流	-10702
烟雾	-10703
相对应	-10704
那样的	-10705
▁res	-10706
人际关系	-10707
物理学家	-10708
营养成分	-10709
表现形式	-10710
上讲	-10711
催眠	-10712
教程	-10713
比率	-10714
油腻	-10715
银币	-10716
除去	-10717
一生的	-10718
的发病率	-10719
供求	-10720
型号	-10721
太守	-10722
燃油	-10723
诗的	-10724
ata	-10725
思想和	-10726
在这样的	-10727
__	-10728
亲切	-10729
典故	-10730
分歧	-10731
名言	-10732
种的	-10733
案件的	-10734
市场需求	-10735
▁或	-10736
▁导读	-10737
主体的	-10738
博士生	-10739
把孩子	-10740
切断	-10741
博大	-10742
县的	-10743
泉水	-10744
福州	-10745
ant	-10746
个月的	-10747
地下水	-10748
数量的	-10749
灵活性	-10750
乳腺癌的	-10751
在我们的	-10752
广泛应用	-10753
这个世界	-10754
▁内	-10755
供需	-10756
停滞	-10757
奠定	-10758
抵达	-10759
清晨	-10760
石刻	-10761
读写	-10762
是不会	-10763
食欲不振	-10764
中年	-10765
勇于	-10766
惊讶	-10767
部和	-10768
在上海	-10769
的阶段	-10770
出现问题	-10771
▁即	-10772
大了	-10773
天性	-10774
成败	-10775
构筑	-10776
游览	-10777
章程	-10778
在未来	-10779
葡萄牙	-10780
不仅如此	-10781
变得更加	-10782
丙烯	-10783
监狱	-10784
的环境中	-10785
▁总	-10786
传送	-10787
台风	-10788
天体	-10789
就得	-10790
测评	-10791
过低	-10792
邻居	-10793
▁it	-10794
一会儿	-10795
专业化	-10796
遇到的	-10797
都有着	-10798
数字货币	-10799
非常大的	-10800
亲人	-10801
开朗	-10802
爸妈	-10803
近些	-10804
最好是	-10805
的两个	-10806
引导孩子	-10807
民间借贷	-10808
东吴	-10809
素有	-10810
缺钙	-10811
舰队	-10812
要对	-10813
路军	-10814
靶向	-10815
首个	-10816
rna	-10817
独立性	-10818
刘禅	-10819
墙壁	-10820
血浆	-10821
降雨	-10822
▁说起	-10823
来判断	-10824
漫长的	-10825
采用的	-10826
三分之一	-10827
但是对于	-10828
主要是因为	-10829
七月	-10830
层层	-10831
而定	-10832
风云	-10833
出土的	-10834
发行的	-10835
一处	-10836
不稳	-10837
地去	-10838
性欲	-10839
红肿	-10840
肉眼	-10841
目前为止	-10842
家家	-10843
独具	-10844
饱满	-10845
四川省	-10846
对他们	-10847
的实际	-10848
莫斯科	-10849
项目管理	-10850
对人	-10851
左手	-10852
战败	-10853
抛弃	-10854
钢管	-10855
下面是	-10856
可根据	-10857
的状况	-10858
管理学	-10859
赵匡胤	-10860
三代	-10861
减速	-10862
分组	-10863
制备	-10864
紫色	-10865
肾炎	-10866
颜料	-10867
高山	-10868
发展中	-10869
对人类	-10870
列宁	-10871
南昌	-10872
天人	-10873
就将	-10874
时会	-10875
特种	-10876
看重	-10877
税法	-10878
静止	-10879
▁一些	-10880
与方法	-10881
才开始	-10882
的检查	-10883
商场	-10884
栖息	-10885
表格	-10886
评选	-10887
想不到	-10888
教育活动	-10889
互助	-10890
将士	-10891
往下	-10892
滋生	-10893
转发	-10894
创作的	-10895
美术馆	-10896
多位	-10897
王室	-10898
皮肤病	-10899
负面影响	-10900
举个	-10901
我市	-10902
镇痛	-10903
的分类	-10904
的家长	-10905
毫无疑问	-10906
ep	-10907
▁「	-10908
引言	-10909
电极	-10910
眼部	-10911
学习中	-10912
有多大	-10913
买卖合同	-10914
从而达到	-10915
建筑工程	-10916
侵占	-10917
共鸣	-10918
开头	-10919
意象	-10920
杀伤	-10921
的神	-10922
而异	-10923
革新	-10924
不论是	-10925
的人工	-10926
等诸多	-10927
遇到了	-10928
不是一个	-10929
数据中心	-10930
这样一来	-10931
一笔	-10932
以求	-10933
分校	-10934
四方	-10935
工匠	-10936
抢劫	-10937
无痛	-10938
本法	-10939
负载	-10940
销量	-10941
▁ct	-10942
的必要	-10943
从不	-10944
喝茶	-10945
器材	-10946
字符	-10947
制成的	-10948
及相关	-10949
女性在	-10950
未成年	-10951
而没有	-10952
体制改革	-10953
▁林	-10954
基数	-10955
汇总	-10956
泛滥	-10957
董卓	-10958
▁进入	-10959
发改委	-10960
自己是	-10961
olog	-10962
不必要的	-10963
其他国家	-10964
发展中国家	-10965
」。	-10966
一到	-10967
亦可	-10968
外围	-10969
成瘾	-10970
昏迷	-10971
游击	-10972
赏识	-10973
▁慢性	-10974
和美国	-10975
饮用水	-10976
从来没有	-10977
文学作品	-10978
诺贝尔奖	-10979
不该	-10980
唤醒	-10981
墙面	-10982
牛市	-10983
▁治疗	-10984
一般人	-10985
公共场所	-10986
前列腺癌	-10987
复旦大学	-10988
根部	-10989
牛顿	-10990
封建社会	-10991
僵硬	-10992
水体	-10993
这门	-10994
但也有	-10995
全程	-10996
品味	-10997
大唐	-10998
市值	-10999
拉斯	-11000
排行	-11001
罹患	-11002
剩下的	-11003
的工具	-11004
不算	-11005
列车	-11006
副院长	-11007
孕激素	-11008
现实中	-11009
的主人	-11010
的新闻	-11011
律师事务所	-11012
mo	-11013
所含	-11014
茶树	-11015
读懂	-11016
▁关注	-11017
孔子的	-11018
收入的	-11019
九月	-11020
弱势	-11021
时段	-11022
监视	-11023
细则	-11024
采暖	-11025
的老师	-11026
循序渐进	-11027
辛亥革命	-11028
事的	-11029
以南	-11030
县志	-11031
名誉	-11032
▁sy	-11033
是社会	-11034
有问题	-11035
湖南省	-11036
海绵	-11037
片的	-11038
阵地	-11039
是无法	-11040
清晰的	-11041
五彩	-11042
占总	-11043
岭南	-11044
签字	-11045
高职	-11046
共同的	-11047
而不能	-11048
空气中的	-11049
年左右	-11050
自来水	-11051
值得注意的是	-11052
会说	-11053
兴盛	-11054
废除	-11055
截然	-11056
纤维化	-11057
应该注意	-11058
减缓	-11059
口味	-11060
地貌	-11061
大街	-11062
心肺	-11063
悬浮	-11064
精通	-11065
衣物	-11066
谷物	-11067
一个新的	-11068
党委	-11069
制止	-11070
聚合	-11071
预备	-11072
ppp	-11073
▁每个	-11074
▁答案	-11075
又一次	-11076
我们就来	-11077
膳食纤维	-11078
的生活方式	-11079
五脏	-11080
脑海	-11081
角落	-11082
以下几	-11083
体现出	-11084
吃什么	-11085
采取了	-11086
型和	-11087
无从	-11088
出现过	-11089
显微镜	-11090
解决的问题	-11091
一无	-11092
交界	-11093
有为	-11094
纵向	-11095
▁误区	-11096
元的	-11097
军区	-11098
十余	-11099
在不	-11100
此病	-11101
步行	-11102
状的	-11103
▁基于	-11104
资产阶级	-11105
二百	-11106
器物	-11107
小腿	-11108
房的	-11109
渗出	-11110
称谓	-11111
聊聊	-11112
警示	-11113
硕士学位	-11114
都有一个	-11115
和无	-11116
字形	-11117
尔斯	-11118
暂行	-11119
浓厚	-11120
预言	-11121
就是对	-11122
不可缺少	-11123
mb	-11124
世俗	-11125
眼底	-11126
知晓	-11127
落叶	-11128
代表了	-11129
的项目	-11130
专制	-11131
作曲	-11132
商店	-11133
学和	-11134
心目	-11135
竣工	-11136
ight	-11137
▁中国的	-11138
肿瘤细胞	-11139
中午	-11140
侦查	-11141
剂的	-11142
博览	-11143
枢纽	-11144
不同的是	-11145
卵巢功能	-11146
消化系统	-11147
不懈	-11148
大道	-11149
姐姐	-11150
据此	-11151
稀土	-11152
纸币	-11153
推动了	-11154
确定了	-11155
中西	-11156
再用	-11157
很是	-11158
杀害	-11159
河西	-11160
灯光	-11161
矿产	-11162
专利权	-11163
这几个	-11164
我们认为	-11165
条的规定	-11166
迄今为止	-11167
ff	-11168
▁注	-11169
出一	-11170
前途	-11171
因人	-11172
完好	-11173
尼斯	-11174
差的	-11175
族人	-11176
的四	-11177
学习者	-11178
把这些	-11179
机体的	-11180
直接的	-11181
自然而	-11182
管理系统	-11183
备孕	-11184
有不	-11185
简单地	-11186
表现的	-11187
文艺复兴	-11188
这个过程	-11189
内侧	-11190
尔德	-11191
抬头	-11192
池塘	-11193
三年级	-11194
控制器	-11195
更需要	-11196
共产主义	-11197
hy	-11198
一提	-11199
互补	-11200
大腿	-11201
河水	-11202
炀帝	-11203
点滴	-11204
鼻咽	-11205
举行的	-11206
了一条	-11207
的样子	-11208
的模式	-11209
有自己的	-11210
.《	-11211
千百	-11212
吴国	-11213
错过	-11214
》),	-11215
周期性	-11216
该怎么	-11217
自然灾害	-11218
端口	-11219
腺体	-11220
那一	-11221
中全会	-11222
在很多	-11223
▁糖尿病	-11224
理工学院	-11225
了个	-11226
出兵	-11227
失望	-11228
契机	-11229
摆放	-11230
散步	-11231
文言	-11232
水温	-11233
流向	-11234
滋养	-11235
疗程	-11236
称赞	-11237
苍白	-11238
蚂蚁	-11239
较弱	-11240
题为	-11241
大家对	-11242
自然资源	-11243
高等学校	-11244
疾病的发生	-11245
▁外	-11246
就很	-11247
热泵	-11248
白菜	-11249
胎动	-11250
身的	-11251
荷尔蒙	-11252
岁的时候	-11253
有人认为	-11254
科技大学	-11255
西方国家	-11256
宁夏	-11257
生前	-11258
还需	-11259
▁有的	-11260
上升到	-11261
功能性	-11262
包括了	-11263
古建筑	-11264
三者	-11265
嘉庆	-11266
宏伟	-11267
心智	-11268
挥发	-11269
气和	-11270
讲到	-11271
但随着	-11272
半小时	-11273
在欧洲	-11274
王安石	-11275
这说明	-11276
通过了	-11277
ly	-11278
之余	-11279
冰川	-11280
刻意	-11281
成因	-11282
手册	-11283
推拿	-11284
机床	-11285
几年来	-11286
控制系统	-11287
▁安	-11288
却又	-11289
少于	-11290
计数	-11291
雕像	-11292
▁全国	-11293
后面的	-11294
奥地利	-11295
的想法	-11296
ga	-11297
上说	-11298
空前	-11299
精索	-11300
紫砂	-11301
占据了	-11302
犹太人	-11303
的起源	-11304
呼吸系统	-11305
基石	-11306
等国	-11307
美食	-11308
身边的	-11309
二月	-11310
切入	-11311
号为	-11312
异议	-11313
明星	-11314
疏散	-11315
裁决	-11316
轮廓	-11317
预示	-11318
山水画	-11319
支气管炎	-11320
利尿	-11321
同情	-11322
居多	-11323
监理	-11324
纸张	-11325
美女	-11326
但其实	-11327
只能是	-11328
激烈的	-11329
▁岁	-11330
住在	-11331
官职	-11332
平和	-11333
求职	-11334
用在	-11335
身影	-11336
▁早在	-11337
扁桃体	-11338
的解释	-11339
第二大	-11340
常见的一种	-11341
文科	-11342
积淀	-11343
芝麻	-11344
珍贵的	-11345
非常大	-11346
动脉粥样	-11347
▁元	-11348
充当	-11349
变暖	-11350
只在	-11351
止损	-11352
法师	-11353
熊猫	-11354
自发	-11355
▁后来	-11356
尿道炎	-11357
特征的	-11358
的特性	-11359
发展趋势	-11360
传统文化的	-11361
中含	-11362
固化	-11363
按钮	-11364
敏捷	-11365
▁全球	-11366
▁而且	-11367
的来源	-11368
群体的	-11369
健康发展	-11370
这个国家	-11371
中被	-11372
直流	-11373
不少于	-11374
婚姻法	-11375
整理的	-11376
科大学	-11377
课题组	-11378
bc	-11379
中都	-11380
缓冲	-11381
阳明	-11382
除尘	-11383
使我们	-11384
发挥着	-11385
婴儿的	-11386
老师在	-11387
采访时	-11388
第一时间	-11389
自我保护	-11390
修饰	-11391
强直	-11392
拿破	-11393
木质	-11394
玉石	-11395
诉求	-11396
频频	-11397
两方面	-11398
及以上	-11399
所在的	-11400
讨伐	-11401
评判	-11402
马路	-11403
研究会	-11404
公共服务	-11405
年的历史	-11406
▁教	-11407
三人	-11408
叠加	-11409
太高	-11410
好坏	-11411
损耗	-11412
有名	-11413
直立	-11414
听说过	-11415
氧化物	-11416
由于其	-11417
给出了	-11418
诊断为	-11419
这方面	-11420
让学生在	-11421
上也	-11422
上诉	-11423
抒情	-11424
明年	-11425
税额	-11426
不能够	-11427
二年级	-11428
根据地	-11429
生子女	-11430
成为一种	-11431
我们今天	-11432
这一问题	-11433
典籍	-11434
南山	-11435
曾任	-11436
理智	-11437
访者	-11438
▁or	-11439
方方面	-11440
明白了	-11441
有三个	-11442
的原理	-11443
的计算	-11444
万亿美元	-11445
刚才	-11446
大赛	-11447
支架	-11448
枝条	-11449
累及	-11450
评定	-11451
试用	-11452
过快	-11453
颇为	-11454
生殖器官	-11455
觉得自己	-11456
丘疹	-11457
乙醇	-11458
但我	-11459
战功	-11460
敬畏	-11461
文凭	-11462
腐烂	-11463
赤壁	-11464
▁家	-11465
▁汉	-11466
医治	-11467
和外	-11468
场面	-11469
影子	-11470
抽搐	-11471
问世	-11472
各国的	-11473
当中的	-11474
的综合	-11475
的评价	-11476
要进行	-11477
也不例外	-11478
学龄	-11479
排毒	-11480
早晚	-11481
穿透	-11482
▁数学	-11483
如今的	-11484
是怎样的	-11485
行政部门	-11486
风险管理	-11487
▁法	-11488
上古	-11489
休假	-11490
并列	-11491
晋国	-11492
板书	-11493
语境	-11494
阻滞	-11495
隐性	-11496
高频	-11497
齐全	-11498
任何人	-11499
两周	-11500
丰收	-11501
延安	-11502
活血	-11503
▁步骤	-11504
学术界	-11505
抗病毒	-11506
极高的	-11507
的预防	-11508
个人信息	-11509
──	-11510
域网	-11511
多半	-11512
将对	-11513
悄悄	-11514
摩托	-11515
明明	-11516
翅膀	-11517
不只是	-11518
实在是	-11519
是女性	-11520
行为习惯	-11521
中国科学院	-11522
偏低	-11523
完备	-11524
散发	-11525
这套	-11526
▁no	-11527
拿破仑	-11528
现阶段	-11529
都是以	-11530
黑色素	-11531
还会出现	-11532
做个	-11533
列强	-11534
受众	-11535
大宗	-11536
小肠	-11537
我和	-11538
批次	-11539
抗击	-11540
皆是	-11541
芳香	-11542
伊拉克	-11543
年代初	-11544
打破了	-11545
石器时代	-11546
吻合	-11547
极高	-11548
标注	-11549
两个人	-11550
使孩子	-11551
出不穷	-11552
它是一种	-11553
业余	-11554
地主	-11555
征兆	-11556
攻坚	-11557
爬行	-11558
电图	-11559
腺瘤	-11560
草木	-11561
遥远	-11562
非凡	-11563
▁数据	-11564
的交易	-11565
还可能	-11566
▁据了解	-11567
丹麦	-11568
体液	-11569
所要	-11570
明末	-11571
不小心	-11572
他就是	-11573
甚至会	-11574
的分泌	-11575
参谋	-11576
庭院	-11577
泥土	-11578
返还	-11579
是人们	-11580
石墨烯	-11581
第二年	-11582
肯定是	-11583
发现自己	-11584
剑桥	-11585
原先	-11586
性情	-11587
报刊	-11588
搅拌	-11589
生儿	-11590
缘故	-11591
有一点	-11592
症患者	-11593
的概率	-11594
而且是	-11595
pi	-11596
中度	-11597
官僚	-11598
报表	-11599
日是	-11600
▁un	-11601
犯罪嫌疑	-11602
sc	-11603
同治	-11604
宇航	-11605
宣言	-11606
帮忙	-11607
微型	-11608
了起来	-11609
在国家	-11610
想知道	-11611
技术与	-11612
第三人	-11613
一定程度	-11614
具体情况	-11615
心律失常	-11616
的时间内	-11617
社会科学	-11618
美国经济	-11619
大帝	-11620
废气	-11621
总部	-11622
正值	-11623
纯净	-11624
考网	-11625
▁成语	-11626
体系中	-11627
在那里	-11628
python	-11629
仿真	-11630
传到	-11631
婚前	-11632
宿舍	-11633
并为	-11634
心悸	-11635
我省	-11636
早衰	-11637
青藏	-11638
人才的	-11639
是利用	-11640
主要原因	-11641
将自己的	-11642
更具	-11643
更易	-11644
越是	-11645
博士学位	-11646
可以达到	-11647
过户	-11648
门外	-11649
难得	-11650
敏感性	-11651
有帮助	-11652
对学生的	-11653
▁华	-11654
之本	-11655
散户	-11656
看的	-11657
蜀国	-11658
贪污	-11659
迁都	-11660
造反	-11661
知识与	-11662
投资者的	-11663
一世	-11664
两点	-11665
也与	-11666
呵护	-11667
大意	-11668
将被	-11669
斑块	-11670
水电	-11671
预先	-11672
的发现	-11673
运行的	-11674
be	-11675
中叶	-11676
中日	-11677
敏锐	-11678
沉默	-11679
讲师	-11680
层出不穷	-11681
亲戚	-11682
伸展	-11683
刘秀	-11684
放下	-11685
日为	-11686
时报	-11687
的手	-11688
▁当时	-11689
业务的	-11690
的动作	-11691
转型升级	-11692
基建	-11693
积聚	-11694
起码	-11695
阻挡	-11696
▁经济	-11697
奖学金	-11698
手术后	-11699
中的应用	-11700
化了	-11701
占到	-11702
吐蕃	-11703
土木	-11704
栓塞	-11705
满洲	-11706
设法	-11707
ens	-11708
一般都	-11709
而言之	-11710
详细介绍	-11711
三点	-11712
事迹	-11713
威力	-11714
洁净	-11715
渲染	-11716
环绕	-11717
稳步	-11718
高一	-11719
受教育	-11720
清朝的	-11721
自动驾驶	-11722
坚固	-11723
带宽	-11724
神农	-11725
远流	-11726
鲜卑	-11727
▁了解	-11728
家长要	-11729
应该在	-11730
教育学	-11731
西方的	-11732
这样就	-11733
世界第一	-11734
不忘	-11735
沿用	-11736
脱贫	-11737
腊八	-11738
谢谢	-11739
会计师	-11740
传播途径	-11741
学习能力	-11742
每个人都	-11743
功绩	-11744
协定	-11745
名胜	-11746
堂课	-11747
数控	-11748
萨克	-11749
议会	-11750
分析师	-11751
增强了	-11752
建设和	-11753
的身体	-11754
的人来说	-11755
可能会出现	-11756
上肢	-11757
使他	-11758
切忌	-11759
圣母	-11760
帽子	-11761
煤矿	-11762
白石	-11763
线和	-11764
臀部	-11765
▁点击	-11766
▁选择	-11767
关键的	-11768
生长的	-11769
的大部分	-11770
迅速发展	-11771
也让	-11772
乳糖	-11773
京剧	-11774
元宝	-11775
凝血	-11776
友谊	-11777
寒假	-11778
尼古	-11779
平板	-11780
提琴	-11781
更改	-11782
特朗	-11783
破损	-11784
发明了	-11785
范围的	-11786
讲故事	-11787
ivers	-11788
的研究人员	-11789
分层	-11790
活着	-11791
],	-11792
官吏	-11793
修筑	-11794
公孙	-11795
军校	-11796
勃勃	-11797
欢乐	-11798
耗费	-11799
高龄	-11800
我们从	-11801
的资金	-11802
下旬	-11803
亲王	-11804
人参	-11805
俘虏	-11806
女真	-11807
宽带	-11808
就更	-11809
阐释	-11810
▁编辑	-11811
十二年	-11812
一夜	-11813
为由	-11814
出卖	-11815
是的	-11816
重重	-11817
▁yo	-11818
必须有	-11819
活性炭	-11820
物体的	-11821
政府部门	-11822
不以	-11823
回去	-11824
威廉	-11825
悲观	-11826
抗病	-11827
折射	-11828
收录	-11829
本期	-11830
杂质	-11831
法案	-11832
清初	-11833
湿热	-11834
痊愈	-11835
糟糕	-11836
结缔	-11837
青山	-11838
专家们	-11839
范围内的	-11840
fs	-11841
下水	-11842
劳损	-11843
嫦娥	-11844
成份	-11845
蜘蛛	-11846
误诊	-11847
将这些	-11848
来解决	-11849
环境因素	-11850
众人	-11851
伪造	-11852
居于	-11853
强弱	-11854
得分	-11855
灌输	-11856
罢了	-11857
阳县	-11858
他们会	-11859
税务机关	-11860
却被	-11861
可乐	-11862
土豆	-11863
每隔	-11864
登录	-11865
逾期	-11866
镜子	-11867
风吹	-11868
也是有	-11869
低血糖	-11870
带大家	-11871
氧化碳	-11872
直辖市	-11873
所引起的	-11874
也对	-11875
投票	-11876
而为	-11877
该校	-11878
▁mm	-11879
宝贵的	-11880
的严重	-11881
各个方面	-11882
住房公积金	-11883
:「	-11884
亦称	-11885
外侧	-11886
当他	-11887
歌唱	-11888
比上	-11889
听起来	-11890
而是在	-11891
第二次世界大战	-11892
不光	-11893
内经	-11894
加油	-11895
奥秘	-11896
少女	-11897
拉伸	-11898
拘留	-11899
救济	-11900
淋病	-11901
花纹	-11902
风机	-11903
性质的	-11904
性问题	-11905
管理制度	-11906
上万	-11907
十个	-11908
小小	-11909
看完	-11910
顶级	-11911
为了让	-11912
供给侧	-11913
这个阶段	-11914
产值	-11915
写得	-11916
军团	-11917
失效	-11918
巨头	-11919
细微	-11920
远处	-11921
▁建议	-11922
。"《	-11923
个体的	-11924
更重要	-11925
考试的	-11926
而这种	-11927
不同程度	-11928
尸体	-11929
征地	-11930
忽然	-11931
旗帜	-11932
邻近	-11933
门户	-11934
专注于	-11935
世界观	-11936
观察到	-11937
树叶	-11938
测算	-11939
脖子	-11940
在网上	-11941
的食品	-11942
国际贸易	-11943
上都	-11944
嗅觉	-11945
大队	-11946
攀升	-11947
痤疮	-11948
稀少	-11949
藏品	-11950
音频	-11951
风气	-11952
已有的	-11953
而出现	-11954
还存在	-11955
似的	-11956
开支	-11957
御史	-11958
火烧	-11959
肛瘘	-11960
课改	-11961
长春	-11962
ign	-11963
▁每天	-11964
不过是	-11965
危险性	-11966
土地的	-11967
学校和	-11968
打喷嚏	-11969
浓厚的	-11970
交通大学	-11971
所造成的	-11972
现代化的	-11973
倘若	-11974
文武	-11975
期内	-11976
黑白	-11977
ith	-11978
不集中	-11979
的反应	-11980
另外一个	-11981
习作	-11982
忙碌	-11983
创造出	-11984
原子弹	-11985
孩子会	-11986
刊登	-11987
自在	-11988
较短	-11989
进来	-11990
▁本次	-11991
但我们	-11992
支原体	-11993
社会学	-11994
通常会	-11995
贯彻落实	-11996
北上	-11997
外表	-11998
建模	-11999
早泄	-12000
的钱	-12001
而下	-12002
脑梗	-12003
艰辛	-12004
技术在	-12005
的介绍	-12006
的母亲	-12007
起来了	-12008
不确定性	-12009
%(	-12010
喜好	-12011
灰尘	-12012
可以为	-12013
后遗症	-12014
隋炀帝	-12015
▁春	-12016
凌晨	-12017
老虎	-12018
腾讯	-12019
在接受	-12020
地方的	-12021
暑期	-12022
随即	-12023
为一体	-12024
他们是	-12025
北方的	-12026
吸引了	-12027
月中旬	-12028
的限制	-12029
性关节炎	-12030
生产总值	-12031
行政管理	-12032
内分泌失调	-12033
不强	-12034
坚强	-12035
奥斯	-12036
山地	-12037
性好	-12038
航海	-12039
触发	-12040
▁案例	-12041
从小就	-12042
方式和	-12043
法西斯	-12044
储能	-12045
在今	-12046
新手	-12047
比拟	-12048
知觉	-12049
香气	-12050
军事家	-12051
源远流	-12052
甲骨文	-12053
流行病学	-12054
储量	-12055
征战	-12056
牢记	-12057
缺水	-12058
这将	-12059
重修	-12060
的观念	-12061
销售额	-12062
如果孩子	-12063
切换	-12064
所占	-12065
收支	-12066
欺诈	-12067
边疆	-12068
也逐渐	-12069
价值和	-12070
发达的	-12071
年以上	-12072
残疾人	-12073
移动互联网	-12074
两边	-12075
势头	-12076
同龄	-12077
朝阳	-12078
气道	-12079
杂志上	-12080
的好坏	-12081
主食	-12082
便可	-12083
哥伦	-12084
实证	-12085
版图	-12086
相较	-12087
胀痛	-12088
选购	-12089
第二种	-12090
迎来了	-12091
都无法	-12092
专家认为	-12093
比较容易	-12094
鸦片战争	-12095
失禁	-12096
改编	-12097
摄氏度	-12098
的习俗	-12099
中华文化	-12100
乱世	-12101
前方	-12102
多发	-12103
色调	-12104
行之	-12105
雇佣	-12106
以下是	-12107
将达到	-12108
的意识	-12109
进程中	-12110
仪表	-12111
启迪	-12112
围棋	-12113
对着	-12114
星星	-12115
房屋的	-12116
刑事诉讼	-12117
水平的提高	-12118
丙肝	-12119
秒钟	-12120
财税	-12121
鼓舞	-12122
▁ad	-12123
▁pr	-12124
▁科学	-12125
公认的	-12126
唐玄宗	-12127
感染者	-12128
生殖道	-12129
董事长	-12130
资金的	-12131
违约金	-12132
文化建设	-12133
自然而然	-12134
各异	-12135
城门	-12136
大类	-12137
略有	-12138
个世纪	-12139
力量的	-12140
技术人员	-12141
贯通	-12142
酗酒	-12143
餐桌	-12144
但是他	-12145
强制性	-12146
虽然是	-12147
世界各地	-12148
建设用地	-12149
冒险	-12150
工会	-12151
掩盖	-12152
树的	-12153
爱尔	-12154
牛肉	-12155
通往	-12156
而发生	-12157
哈佛大学	-12158
ve	-12159
咸阳	-12160
地把	-12161
底线	-12162
测验	-12163
穿孔	-12164
黑客	-12165
▁导语	-12166
印度的	-12167
市场中	-12168
的意见	-12169
着一个	-12170
肯定的	-12171
高度的	-12172
主要是指	-12173
之源	-12174
伯特	-12175
修身	-12176
内向	-12177
掠夺	-12178
物料	-12179
著称	-12180
长辈	-12181
ars	-12182
但没有	-12183
几年的	-12184
的文字	-12185
笔记本	-12186
功能紊乱	-12187
岁的孩子	-12188
bi	-12189
之物	-12190
假日	-12191
关乎	-12192
台上	-12193
武力	-12194
的第	-12195
装机	-12196
诗中	-12197
是否能	-12198
很有可能	-12199
了呢	-12200
向东	-12201
畅通	-12202
苦难	-12203
试行	-12204
不会有	-12205
开启了	-12206
自己对	-12207
发挥作用	-12208
娃娃	-12209
尽力	-12210
庄家	-12211
游记	-12212
的发	-12213
肾小	-12214
药的	-12215
见面	-12216
记账	-12217
复杂性	-12218
应根据	-12219
是全球	-12220
电解质	-12221
希望大家	-12222
需要进行	-12223
万平方公里	-12224
sm	-12225
▁巴	-12226
前端	-12227
甲基	-12228
选修	-12229
不计	-12230
油炸	-12231
病害	-12232
签名	-12233
追逐	-12234
闭合	-12235
得益于	-12236
说明书	-12237
那么在	-12238
皮质激素	-12239
需要注意的是	-12240
ti	-12241
如其	-12242
急于	-12243
熟知	-12244
牟尼	-12245
置疑	-12246
钻研	-12247
哲学的	-12248
春秋时期	-12249
ll	-12250
乐曲	-12251
惊人	-12252
教书	-12253
智库	-12254
派人	-12255
稀缺	-12256
限额	-12257
代表性	-12258
和一些	-12259
生活垃圾	-12260
枸杞	-12261
草莓	-12262
键盘	-12263
也不同	-12264
做到了	-12265
催化剂	-12266
和分析	-12267
椭圆形	-12268
经济和	-12269
男性不育	-12270
国家和地区	-12271
举证	-12272
施教	-12273
社团	-12274
缩写	-12275
致的	-12276
即使在	-12277
社会上	-12278
是否存在	-12279
青少年的	-12280
................	-12281
▁于	-12282
供暖	-12283
圆明	-12284
孕前	-12285
它会	-12286
致死	-12287
送给	-12288
交换机	-12289
慢慢地	-12290
战斗力	-12291
特朗普	-12292
国家标准	-12293
教学设计	-12294
来源于网络	-12295
甲状腺结节	-12296
举动	-12297
器具	-12298
宁静	-12299
拓宽	-12300
水土	-12301
沉迷	-12302
色彩的	-12303
希望能够	-12304
课程改革	-12305
一股	-12306
八个	-12307
广为	-12308
流的	-12309
亚健康	-12310
内容和	-12311
无明显	-12312
语言文字	-12313
印章	-12314
大棚	-12315
接待	-12316
权和	-12317
为一个	-12318
具备了	-12319
心灵的	-12320
教育工作	-12321
们在	-12322
平凡	-12323
急需	-12324
拘役	-12325
造纸	-12326
随访	-12327
频道	-12328
加入了	-12329
教育是	-12330
住所	-12331
已在	-12332
拉开	-12333
派的	-12334
淡水	-12335
疲惫	-12336
质押	-12337
风寒	-12338
▁项目	-12339
不错的	-12340
有能力	-12341
白居易	-12342
峡谷	-12343
电荷	-12344
成立的	-12345
整理了	-12346
发现问题	-12347
能力的培养	-12348
ld	-12349
为期	-12350
尤以	-12351
比方	-12352
身处	-12353
颁发	-12354
三十年	-12355
就容易	-12356
应该说	-12357
的角色	-12358
运而生	-12359
万户	-12360
加固	-12361
年份	-12362
租房	-12363
读了	-12364
钢材	-12365
就成为	-12366
性不孕	-12367
一些问题	-12368
今天我们	-12369
).	-12370
则有	-12371
更深	-12372
ory	-12373
▁on	-12374
然后在	-12375
升华	-12376
既往	-12377
时可	-12378
办公厅	-12379
揭示了	-12380
税务总局	-12381
年仅	-12382
拖延	-12383
支援	-12384
月至	-12385
白云	-12386
震动	-12387
▁患者	-12388
几乎是	-12389
行政区	-12390
都已经	-12391
为了避免	-12392
交通工具	-12393
劳动争议	-12394
我们国家	-12395
▁胡	-12396
向后	-12397
美人	-12398
野外	-12399
鸿章	-12400
什么叫	-12401
潜意识	-12402
智慧城市	-12403
以北	-12404
卧位	-12405
古道	-12406
对付	-12407
悲伤	-12408
脱出	-12409
自幼	-12410
最后一	-12411
河流域	-12412
作为一名	-12413
甲状腺癌	-12414
主要表现在	-12415
,,	-12416
▁双	-12417
▁字	-12418
▁山	-12419
周易	-12420
市政	-12421
炎热	-12422
贞观	-12423
对我国	-12424
潜伏期	-12425
甚至在	-12426
阅读的	-12427
核心价值观	-12428
po	-12429
导演	-12430
整整	-12431
视线	-12432
不影响	-12433
发现有	-12434
有多种	-12435
自由的	-12436
▁~	-12437
京津	-12438
妙的	-12439
较早	-12440
ary	-12441
ich	-12442
他自己	-12443
干什么	-12444
主要分为	-12445
民营企业	-12446
自身免疫	-12447
之士	-12448
偏向	-12449
史学	-12450
孤立	-12451
祠堂	-12452
章节	-12453
都以	-12454
开放的	-12455
才知道	-12456
推出了	-12457
他会	-12458
周公	-12459
多囊	-12460
想像	-12461
探寻	-12462
推断	-12463
枕头	-12464
浮雕	-12465
率和	-12466
珊瑚	-12467
诗句	-12468
路面	-12469
▁此次	-12470
孩子对	-12471
等多个	-12472
肝功能	-12473
以下几种	-12474
安全隐患	-12475
完全可以	-12476
不法	-12477
不肯	-12478
各式	-12479
已达	-12480
带的	-12481
异味	-12482
柠檬	-12483
▁概述	-12484
但是却	-12485
成一个	-12486
期间的	-12487
集中的	-12488
十分重要	-12489
明确提出	-12490
七个	-12491
带头	-12492
收盘	-12493
琉璃	-12494
祖宗	-12495
讲课	-12496
这让	-12497
预报	-12498
龙舟	-12499
是多少	-12500
祖国的	-12501
预期的	-12502
还是比较	-12503
▁也	-12504
前行	-12505
受人	-12506
当局	-12507
感的	-12508
王子	-12509
码头	-12510
面色	-12511
了下来	-12512
双方的	-12513
对方的	-12514
都是有	-12515
主要通过	-12516
恢复正常	-12517
是这样的	-12518
▁地	-12519
传教	-12520
时时	-12521
杀灭	-12522
温州	-12523
烹饪	-12524
菲律	-12525
边际	-12526
出台了	-12527
原则上	-12528
另一方	-12529
毕业于	-12530
一九	-12531
之旅	-12532
兴建	-12533
吞噬	-12534
填充	-12535
曾有	-12536
本案	-12537
供大家	-12538
全过程	-12539
总结了	-12540
患者中	-12541
高血脂	-12542
这段时间	-12543
之日	-12544
以期	-12545
原型	-12546
大中	-12547
将从	-12548
很不	-12549
快递	-12550
步兵	-12551
调味	-12552
▁培养	-12553
变压器	-12554
能力强	-12555
行政法规	-12556
刘伯	-12557
和中	-12558
国会	-12559
将要	-12560
延误	-12561
水准	-12562
犹豫	-12563
的说	-12564
编号	-12565
议题	-12566
酵母	-12567
制造商	-12568
十五年	-12569
的提高	-12570
认识和	-12571
我们发现	-12572
七十	-12573
优劣	-12574
先锋	-12575
区内	-12576
四面	-12577
开元	-12578
素描	-12579
组的	-12580
经由	-12581
▁到了	-12582
平等的	-12583
的最好	-12584
市场竞争	-12585
理工大学	-12586
一八	-12587
恩来	-12588
无害	-12589
统称	-12590
解脱	-12591
菲律宾	-12592
上升趋势	-12593
产品质量	-12594
研究报告	-12595
这就需要	-12596
天上	-12597
座谈	-12598
的和	-12599
逃生	-12600
快乐的	-12601
有趣的	-12602
蓄电池	-12603
借口	-12604
壮观	-12605
杂草	-12606
血性	-12607
学习了	-12608
学科的	-12609
非常高	-12610
在中国的	-12611
没有得到	-12612
托管	-12613
昆仑	-12614
术前	-12615
走过	-12616
餐后	-12617
一书中	-12618
土地上	-12619
就是把	-12620
亮度	-12621
结尾	-12622
fer	-12623
下半年	-12624
公司法	-12625
和完善	-12626
哺乳期	-12627
引起重视	-12628
▁来	-12629
为准	-12630
习性	-12631
介于	-12632
胸痛	-12633
顶端	-12634
资产的	-12635
这一时期	-12636
剖腹	-12637
国庆	-12638
油气	-12639
者也	-12640
落到	-12641
这天	-12642
▁cl	-12643
▁长期	-12644
大小的	-12645
很明显	-12646
欧洲的	-12647
信息安全	-12648
没有一个	-12649
就没	-12650
指的	-12651
纠结	-12652
随处	-12653
高手	-12654
hcg	-12655
大约在	-12656
安徽省	-12657
的一条	-12658
里程碑	-12659
值得我们	-12660
可以提高	-12661
低头	-12662
出路	-12663
四月	-12664
存量	-12665
幼苗	-12666
总监	-12667
挽救	-12668
率军	-12669
花了	-12670
就显得	-12671
有关系	-12672
考生的	-12673
肺结核	-12674
是不同的	-12675
▁注意事项	-12676
他又	-12677
说得	-12678
sy	-12679
侵华	-12680
南非	-12681
安抚	-12682
建安	-12683
本金	-12684
而死	-12685
膝盖	-12686
自制	-12687
行车	-12688
转入	-12689
做出的	-12690
常见于	-12691
负离子	-12692
行政处罚	-12693
专著	-12694
之风	-12695
但又	-12696
压制	-12697
的反	-12698
足迹	-12699
辽东	-12700
▁急性	-12701
就无法	-12702
促进学生	-12703
健康状况	-12704
国民政府	-12705
入关	-12706
它对	-12707
普惠	-12708
起始	-12709
闭塞	-12710
青光	-12711
gps	-12712
主义者	-12713
公司在	-12714
基础的	-12715
建筑师	-12716
清楚地	-12717
而产生的	-12718
表达能力	-12719
赔偿责任	-12720
即时	-12721
增幅	-12722
献血	-12723
的石	-12724
自救	-12725
进的	-12726
重力	-12727
保持着	-12728
英格兰	-12729
先民	-12730
南朝	-12731
景物	-12732
温差	-12733
益处	-12734
被杀	-12735
则需要	-12736
家族史	-12737
皇太极	-12738
社会中	-12739
高强度	-12740
心力衰竭	-12741
有限责任	-12742
▁研究人员	-12743
五千	-12744
停药	-12745
共建	-12746
同居	-12747
图为	-12748
大楼	-12749
当日	-12750
有氧	-12751
生字	-12752
而使	-12753
调度	-12754
银杏	-12755
▁do	-12756
但不能	-12757
妇科炎症	-12758
▁应	-12759
但仍	-12760
奢侈	-12761
精囊	-12762
营利	-12763
连带	-12764
采纳	-12765
集群	-12766
不一致	-12767
等内容	-12768
自然人	-12769
各不相同	-12770
的发生率	-12771
自主招生	-12772
角度来看	-12773
ax	-12774
于世	-12775
作风	-12776
忧郁	-12777
沧桑	-12778
犯了	-12779
胶囊	-12780
调试	-12781
飞船	-12782
▁基本	-12783
大家好	-12784
如果能	-12785
动性	-12786
变速	-12787
裂缝	-12788
▁古代	-12789
▁相信	-12790
合伙人	-12791
天左右	-12792
的一年	-12793
给患者	-12794
而形成	-12795
购房者	-12796
业内人士	-12797
结缔组织	-12798
老年人的	-12799
是中华民族	-12800
万亩	-12801
先是	-12802
双眼	-12803
年年	-12804
早孕	-12805
盐水	-12806
短信	-12807
▁可是	-12808
▁怀孕	-12809
来完成	-12810
不言	-12811
圣地	-12812
察觉	-12813
缺铁	-12814
要先	-12815
发生过	-12816
指定的	-12817
明朝的	-12818
等都是	-12819
越来越多的人	-12820
后可	-12821
患了	-12822
所见	-12823
机油	-12824
空洞	-12825
行列	-12826
车间	-12827
这张	-12828
你需要	-12829
万平方米	-12830
非法集资	-12831
复查	-12832
师傅	-12833
投诉	-12834
摸索	-12835
方可	-12836
ina	-12837
lan	-12838
使用者	-12839
到一个	-12840
同时还	-12841
有机肥	-12842
深圳市	-12843
的战争	-12844
三个阶段	-12845
交感神经	-12846
情操	-12847
放学	-12848
自有	-12849
记述	-12850
了他的	-12851
在体内	-12852
并进行	-12853
性传播	-12854
按规定	-12855
规范的	-12856
▁我们的	-12857
污染防治	-12858
消化吸收	-12859
中就	-12860
他把	-12861
并存	-12862
恰好	-12863
早日	-12864
本是	-12865
果然	-12866
清偿	-12867
自强	-12868
are	-12869
避免了	-12870
全国人民	-12871
医科大学	-12872
相对来说	-12873
变得越来越	-12874
随着时间的	-12875
一声	-12876
扩建	-12877
最少	-12878
段的	-12879
毛发	-12880
肛肠	-12881
能的	-12882
酵素	-12883
和谐的	-12884
的消息	-12885
要保持	-12886
偏离	-12887
号码	-12888
年和	-12889
心思	-12890
硫化	-12891
神仙	-12892
必需的	-12893
每个月	-12894
淋巴细胞	-12895
六月	-12896
兼并	-12897
套路	-12898
富汗	-12899
常说	-12900
抄袭	-12901
新政	-12902
核酸	-12903
模板	-12904
要将	-12905
酰胺	-12906
李鸿章	-12907
最好不要	-12908
血红蛋白	-12909
根据自己的	-12910
-《	-12911
▁孙	-12912
不正	-12913
听听	-12914
塞尔	-12915
珠宝	-12916
福音	-12917
蛋糕	-12918
超重	-12919
了解决	-12920
白色的	-12921
相比较	-12922
他们认为	-12923
区块链技术	-12924
客人	-12925
橄榄	-12926
的正	-12927
只要是	-12928
红色的	-12929
中的作用	-12930
▁篇	-12931
不经	-12932
初衷	-12933
深思	-12934
滋味	-12935
的爱	-12936
罪名	-12937
舌头	-12938
车型	-12939
举办的	-12940
二十年	-12941
低年级	-12942
既可以	-12943
的事业	-12944
诸侯国	-12945
软组织	-12946
建立一个	-12947
快速增长	-12948
手足口病	-12949
教育改革	-12950
叔叔	-12951
多方	-12952
新月	-12953
的家	-12954
研修	-12955
越长	-12956
轮回	-12957
▁方法	-12958
为主体	-12959
作品中	-12960
第一种	-12961
岁以上的	-12962
口吃	-12963
无常	-12964
桓公	-12965
胎教	-12966
腔内	-12967
雄伟	-12968
会受到	-12969
有三种	-12970
汽车的	-12971
设计中	-12972
长大后	-12973
上部	-12974
伏羲	-12975
全校	-12976
印花	-12977
古诗	-12978
微小	-12979
热衷	-12980
请教	-12981
▁健康	-12982
乙肝病毒	-12983
睡眠时间	-12984
资料显示	-12985
释迦牟尼	-12986
可为	-12987
政变	-12988
柔和	-12989
男生	-12990
鲜活	-12991
也同样	-12992
时间里	-12993
internet	-12994
刻苦	-12995
国画	-12996
总共	-12997
欠缺	-12998
的面	-12999
税费	-13000
精选	-13001
英勇	-13002
著的	-13003
街头	-13004
重叠	-13005
来确定	-13006
教学质量	-13007
经营管理	-13008
阴道出血	-13009
主要集中在	-13010
三省	-13011
定性	-13012
牛津	-13013
皮书	-13014
节度	-13015
觉醒	-13016
评级	-13017
试着	-13018
透支	-13019
成本的	-13020
▁编者按	-13021
化学反应	-13022
生理功能	-13023
都有自己的	-13024
km	-13025
一期	-13026
之力	-13027
修炼	-13028
勾践	-13029
打压	-13030
说他	-13031
起居	-13032
门类	-13033
国家对	-13034
常见病	-13035
亚历	-13036
人以	-13037
无为	-13038
细细	-13039
追随	-13040
防线	-13041
接下来的	-13042
七八	-13043
多用	-13044
并向	-13045
挂钩	-13046
推向	-13047
洛克	-13048
的对	-13049
藏族	-13050
过年	-13051
▁利用	-13052
方方面面	-13053
生殖系统	-13054
》"	-13055
偏好	-13056
大厦	-13057
年号	-13058
给付	-13059
以保证	-13060
通常在	-13061
子宫内膜异位症	-13062
举世	-13063
各行	-13064
得其	-13065
风貌	-13066
▁老师	-13067
也会有	-13068
开创了	-13069
设立的	-13070
选择性	-13071
也是非常	-13072
适合自己的	-13073
不解	-13074
之争	-13075
乘客	-13076
景德	-13077
环比	-13078
生了	-13079
疆域	-13080
相遇	-13081
谋划	-13082
起草	-13083
跨境	-13084
重在	-13085
马斯	-13086
零部件	-13087
专利申请	-13088
冠状动脉	-13089
规章制度	-13090
ational	-13091
波及	-13092
狂犬	-13093
的量	-13094
考量	-13095
黏液	-13096
市面上	-13097
形象的	-13098
普遍的	-13099
继承了	-13100
肝细胞	-13101
▁子	-13102
仁宗	-13103
值为	-13104
合肥	-13105
排序	-13106
脸上	-13107
蛋黄	-13108
营业税	-13109
这个概念	-13110
初次	-13111
审议	-13112
就已	-13113
干脆	-13114
樱桃	-13115
片面	-13116
走在	-13117
通气	-13118
当然是	-13119
潜在的	-13120
的人都	-13121
统计学	-13122
不断增加	-13123
产业结构	-13124
经济损失	-13125
人意	-13126
则可	-13127
同胞	-13128
尾巴	-13129
活检	-13130
▁三是	-13131
中国在	-13132
副主席	-13133
家长和	-13134
意识地	-13135
本科生	-13136
被害人	-13137
营养价值	-13138
多以	-13139
带到	-13140
手动	-13141
母语	-13142
汲取	-13143
花草	-13144
虚构	-13145
野心	-13146
战场上	-13147
易发生	-13148
活动和	-13149
离开了	-13150
一般认为	-13151
占地面积	-13152
财务管理	-13153
下部	-13154
与众	-13155
分红	-13156
红柿	-13157
正规的	-13158
目的地	-13159
近现代	-13160
这样说	-13161
鼻窦炎	-13162
还有一种	-13163
与时	-13164
单单	-13165
孔雀	-13166
干的	-13167
摇篮	-13168
攻克	-13169
日光	-13170
评为	-13171
路易	-13172
压力大	-13173
较小的	-13174
在不同的	-13175
而引起的	-13176
tt	-13177
一文	-13178
化验	-13179
变频	-13180
女方	-13181
张良	-13182
时所	-13183
植被	-13184
画出	-13185
配电	-13186
执行的	-13187
无症状	-13188
▁北	-13189
产区	-13190
救治	-13191
末端	-13192
涂抹	-13193
皮层	-13194
胃部	-13195
%),	-13196
▁ph	-13197
常常会	-13198
的饮食	-13199
的高级	-13200
相关性	-13201
不能满足	-13202
民国时期	-13203
开工	-13204
慎重	-13205
拥挤	-13206
日月	-13207
牌坊	-13208
筷子	-13209
十九大	-13210
在他们	-13211
大脑的	-13212
式建筑	-13213
让人们	-13214
问题和	-13215
▁str	-13216
你的孩子	-13217
??	-13218
▁立	-13219
光辉	-13220
出家	-13221
大权	-13222
股指	-13223
藏着	-13224
与我们	-13225
中秋节	-13226
也称为	-13227
只是一	-13228
的通知	-13229
等形式	-13230
也有很多	-13231
发展战略	-13232
最大限度地	-13233
▁黑	-13234
吃奶	-13235
开端	-13236
收拾	-13237
圆明园	-13238
治疗后	-13239
生活和	-13240
还有的	-13241
nm	-13242
写下	-13243
匹林	-13244
头皮	-13245
如在	-13246
无锡	-13247
注定	-13248
疑难	-13249
降到	-13250
元宵节	-13251
的军事	-13252
竞争对手	-13253
ix	-13254
伤寒	-13255
卡片	-13256
听从	-13257
哪儿	-13258
筹划	-13259
羲之	-13260
舒张	-13261
也是最	-13262
事件的	-13263
投入到	-13264
伊斯兰教	-13265
各方面的	-13266
传世	-13267
山顶	-13268
煤气	-13269
不正常	-13270
强度的	-13271
早发现	-13272
超声波	-13273
中国政府	-13274
犯罪分子	-13275
以提高	-13276
的高速	-13277
至今日	-13278
中央空调	-13279
或多或少	-13280
万多	-13281
凝固	-13282
多变	-13283
录像	-13284
是可	-13285
留给	-13286
脱垂	-13287
云南省	-13288
电视剧	-13289
虽然在	-13290
理财产品	-13291
房地产开发	-13292
万事	-13293
了吧	-13294
克兰	-13295
复议	-13296
多尔	-13297
菌性	-13298
钱的	-13299
阶梯	-13300
为主题	-13301
习惯性	-13302
对这个	-13303
很快就	-13304
服务于	-13305
落后的	-13306
中老年人	-13307
之家	-13308
功倍	-13309
厂房	-13310
思索	-13311
沙俄	-13312
猜想	-13313
稳健	-13314
篇章	-13315
粘稠	-13316
▁lt	-13317
也存在	-13318
处理好	-13319
的一方	-13320
驾驶员	-13321
大学教授	-13322
就是这样	-13323
成为中国	-13324
主要体现在	-13325
是什么原因	-13326
东莞	-13327
功德	-13328
甲午	-13329
答应	-13330
羊肉	-13331
风味	-13332
龙门	-13333
公布了	-13334
向上的	-13335
爱尔兰	-13336
的重大	-13337
不良影响	-13338
("	-13339
江河	-13340
自家	-13341
菠菜	-13342
但这种	-13343
的现实	-13344
自己去	-13345
交融	-13346
低落	-13347
兵法	-13348
别墅	-13349
捐赠	-13350
控股	-13351
明月	-13352
树种	-13353
格拉	-13354
车上	-13355
闪光	-13356
优美的	-13357
但他们	-13358
的学校	-13359
的情感	-13360
类专业	-13361
也可能是	-13362
我们不能	-13363
白带增多	-13364
▁夏	-13365
江湖	-13366
读音	-13367
也能够	-13368
但这些	-13369
在同一	-13370
的细胞	-13371
的美国	-13372
中华文明	-13373
▁转	-13374
丘脑	-13375
供养	-13376
偏高	-13377
嘌呤	-13378
妥善	-13379
日照	-13380
疾患	-13381
矿石	-13382
red	-13383
▁安全	-13384
相适应	-13385
而造成	-13386
最著名的	-13387
的原因之一	-13388
股份有限公司	-13389
严密	-13390
商朝	-13391
四是	-13392
放假	-13393
ook	-13394
适应性	-13395
专家学者	-13396
并不意味着	-13397
义词	-13398
伤残	-13399
克隆	-13400
写成	-13401
年夜	-13402
和提高	-13403
结果是	-13404
阿富汗	-13405
夫妻共同	-13406
就会产生	-13407
心肌梗死	-13408
教学过程	-13409
该怎么办	-13410
一向	-13411
出色	-13412
吸吮	-13413
失控	-13414
批发	-13415
放开	-13416
班会	-13417
秦军	-13418
筹码	-13419
紧缩	-13420
采摘	-13421
防疫	-13422
▁小学	-13423
对他的	-13424
战斗机	-13425
表达了	-13426
中国传统	-13427
▁摘	-13428
兰花	-13429
古籍	-13430
瀑布	-13431
稳固	-13432
管教	-13433
血尿	-13434
较重	-13435
ore	-13436
为企业	-13437
同时又	-13438
来分析	-13439
的实施	-13440
的平均	-13441
还是有	-13442
了大量的	-13443
及时发现	-13444
之法	-13445
列出	-13446
最强	-13447
谣言	-13448
山西省	-13449
废弃物	-13450
考试中	-13451
神经网络	-13452
这就要求	-13453
人或	-13454
听过	-13455
巅峰	-13456
水流	-13457
汇集	-13458
电容	-13459
胶质	-13460
量少	-13461
熟知的	-13462
规范化	-13463
使用寿命	-13464
无人驾驶	-13465
动脉粥样硬化	-13466
▁吃	-13467
嘴巴	-13468
备份	-13469
带状	-13470
常在	-13471
来得	-13472
篆刻	-13473
准确性	-13474
就会被	-13475
广州市	-13476
我们都	-13477
来说是	-13478
的正确	-13479
线城市	-13480
已经有了	-13481
的方式来	-13482
一头	-13483
大连	-13484
无知	-13485
有幸	-13486
畜禽	-13487
联动	-13488
鼠标	-13489
显著的	-13490
权力的	-13491
生长在	-13492
莫过于	-13493
port	-13494
也会导致	-13495
乡土	-13496
事半	-13497
其二	-13498
开幕	-13499
自如	-13500
▁无论	-13501
反过来	-13502
宝宝在	-13503
准入	-13504
动脑	-13505
定理	-13506
尔夫	-13507
沉着	-13508
镇静	-13509
患上了	-13510
所处的	-13511
的依据	-13512
的系统	-13513
ject	-13514
为大家介绍	-13515
充沛	-13516
可燃	-13517
后会	-13518
后有	-13519
寂寞	-13520
报价	-13521
易懂	-13522
满族	-13523
的低	-13524
的红	-13525
的良好	-13526
饱和脂肪酸	-13527
以太	-13528
北平	-13529
受压	-13530
▁相关	-13531
少量的	-13532
被广泛	-13533
不由	-13534
兵团	-13535
南阳	-13536
厚重	-13537
器和	-13538
拥抱	-13539
浅谈	-13540
胜任	-13541
新型的	-13542
流行性	-13543
的决定	-13544
军民	-13545
周朝	-13546
增厚	-13547
时任	-13548
渔业	-13549
甲型	-13550
外国人	-13551
的性格	-13552
应运而生	-13553
的目的是	-13554
孩子的成长	-13555
俱乐	-13556
得不	-13557
所处	-13558
欺负	-13559
炸弹	-13560
这几	-13561
nas	-13562
▁技术	-13563
所学校	-13564
病虫害	-13565
的经历	-13566
等方法	-13567
胰腺癌	-13568
就会发现	-13569
神经衰弱	-13570
不惜	-13571
做题	-13572
歌舞	-13573
生生	-13574
▁个人	-13575
一辈子	-13576
的热量	-13577
的高发	-13578
教育理念	-13579
社会经济	-13580
自然环境	-13581
▁#	-13582
将于	-13583
手腕	-13584
更长	-13585
没人	-13586
苦恼	-13587
对患者	-13588
据了解	-13589
事半功倍	-13590
iversity	-13591
不乏	-13592
实效	-13593
归于	-13594
滴虫	-13595
瘦肉	-13596
要说	-13597
越小	-13598
黄瓜	-13599
ipt	-13600
▁不同	-13601
》)。	-13602
出生在	-13603
区域的	-13604
在自己	-13605
确立了	-13606
慢性疾病	-13607
▁花	-13608
坐姿	-13609
城内	-13610
忧虑	-13611
武昌	-13612
绿豆	-13613
农民的	-13614
生命力	-13615
近距离	-13616
发病原因	-13617
主要是由于	-13618
甲状腺功能	-13619
af	-13620
▁秦	-13621
布鲁	-13622
背离	-13623
迟钝	-13624
非农	-13625
首诗	-13626
发展成	-13627
或者在	-13628
的训练	-13629
中央政府	-13630
考试成绩	-13631
鼓励孩子	-13632
一字	-13633
八九	-13634
利好	-13635
归结	-13636
让其	-13637
车轮	-13638
韧性	-13639
鱼的	-13640
不对称	-13641
和我们	-13642
打电话	-13643
学习兴趣	-13644
。」	-13645
上千	-13646
优雅	-13647
实训	-13648
座椅	-13649
故名	-13650
税款	-13651
篇幅	-13652
粉末	-13653
酿酒	-13654
霸主	-13655
中耳炎	-13656
传佛教	-13657
周恩来	-13658
有这么	-13659
▁指	-13660
三层	-13661
上天	-13662
不复	-13663
医务	-13664
在地	-13665
无毒	-13666
李某	-13667
肖像	-13668
领会	-13669
大将军	-13670
资源和	-13671
举止	-13672
传动	-13673
何以	-13674
可行	-13675
孵化	-13676
特许	-13677
肩部	-13678
责令	-13679
▁过去	-13680
▁近期	-13681
要做好	-13682
人民医院	-13683
劳动合同法	-13684
开通	-13685
扰乱	-13686
施加	-13687
精密	-13688
而行	-13689
表象	-13690
辽阔	-13691
▁国内	-13692
。"(	-13693
是具有	-13694
课题研究	-13695
wh	-13696
不愈	-13697
实事	-13698
得当	-13699
纳粹	-13700
维权	-13701
隆起	-13702
中进行	-13703
年美国	-13704
最大化	-13705
青光眼	-13706
cy	-13707
ev	-13708
××	-13709
增量	-13710
巴巴	-13711
政法	-13712
更强	-13713
盆栽	-13714
而去	-13715
了一批	-13716
对环境	-13717
经过了	-13718
革命的	-13719
奖金	-13720
数以	-13721
沉浸	-13722
铺设	-13723
长出	-13724
就不是	-13725
政策和	-13726
无线电	-13727
的人力	-13728
电子邮件	-13729
▁她	-13730
你想	-13731
动能	-13732
大蒜	-13733
所欲	-13734
打了	-13735
清廷	-13736
越早	-13737
▁人体	-13738
了解的	-13739
都能够	-13740
本身就是	-13741
二的	-13742
又将	-13743
商用	-13744
声称	-13745
如来	-13746
宫中	-13747
词典	-13748
钙化	-13749
顽固	-13750
个月内	-13751
了一套	-13752
了这个	-13753
受害人	-13754
天然的	-13755
家里的	-13756
食物中	-13757
发展阶段	-13758
可以进行	-13759
▁别	-13760
乃是	-13761
半月	-13762
天内	-13763
抗震	-13764
掀起	-13765
故居	-13766
武将	-13767
禅宗	-13768
面目	-13769
开发和	-13770
生理性	-13771
还不能	-13772
这使得	-13773
多种多样	-13774
室内空气	-13775
重点文物保护单位	-13776
三峡	-13777
平坦	-13778
年幼	-13779
没错	-13780
热能	-13781
独家	-13782
立意	-13783
阳痿	-13784
高点	-13785
▁),	-13786
因素的	-13787
的主流	-13788
音乐的	-13789
在自己的	-13790
帝国主义	-13791
刚好	-13792
德里	-13793
硝酸	-13794
这才	-13795
▁需要	-13796
其中以	-13797
参与到	-13798
在农村	-13799
会影响到	-13800
关键在于	-13801
源远流长	-13802
罗马帝国	-13803
联系在一起	-13804
借此	-13805
招商	-13806
民政	-13807
紧迫	-13808
不孕症	-13809
两者的	-13810
出生时	-13811
在企业	-13812
相对论	-13813
精美的	-13814
▁com	-13815
一旦发生	-13816
从业人员	-13817
简单来说	-13818
这个名字	-13819
高新技术	-13820
含有丰富的	-13821
两只	-13822
儿歌	-13823
勃起	-13824
导读	-13825
成活	-13826
米尔	-13827
西欧	-13828
这幅	-13829
全国的	-13830
围绕着	-13831
发声	-13832
后在	-13833
归还	-13834
节制	-13835
驱逐	-13836
▁家庭	-13837
▁语文	-13838
的由来	-13839
如果出现	-13840
专栏	-13841
图表	-13842
手掌	-13843
旅客	-13844
本领	-13845
精深	-13846
虽有	-13847
近似	-13848
了一项	-13849
危害性	-13850
等工作	-13851
刑事案件	-13852
师生关系	-13853
fo	-13854
可信	-13855
暴雨	-13856
淡化	-13857
短板	-13858
贵妃	-13859
也只有	-13860
分子的	-13861
诉讼时效	-13862
与非	-13863
多糖	-13864
澳门	-13865
腊月	-13866
首届	-13867
ies	-13868
关键是	-13869
同样是	-13870
成功地	-13871
老师和	-13872
治疗方案	-13873
职业道德	-13874
联系起来	-13875
胡萝卜素	-13876
是怎么回事	-13877
兼职	-13878
勉强	-13879
可怜	-13880
名城	-13881
坚果	-13882
效能	-13883
板材	-13884
此地	-13885
英法	-13886
镶嵌	-13887
与大家	-13888
于是就	-13889
再一次	-13890
密不可	-13891
父亲的	-13892
记载的	-13893
道路上	-13894
报告显示	-13895
人们的生活	-13896
克拉	-13897
合计	-13898
新年	-13899
替换	-13900
水墨	-13901
演练	-13902
记叙	-13903
误导	-13904
邯郸	-13905
雇主	-13906
面粉	-13907
▁每年	-13908
中之重	-13909
失业率	-13910
我们把	-13911
的名称	-13912
联合会	-13913
赢得了	-13914
资源配置	-13915
一来	-13916
一阵	-13917
了的	-13918
全班	-13919
净土	-13920
功课	-13921
回购	-13922
外包	-13923
并把	-13924
房贷	-13925
有色	-13926
苗木	-13927
控制和	-13928
来说说	-13929
这首诗	-13930
也被称为	-13931
三叉神经痛	-13932
具有良好的	-13933
下次	-13934
从前	-13935
图纸	-13936
尿毒	-13937
庄严	-13938
王位	-13939
用笔	-13940
等处	-13941
药材	-13942
最基本	-13943
▁除	-13944
中将	-13945
乔治	-13946
巨额	-13947
遗留	-13948
顺畅	-13949
几分钟	-13950
在某些	-13951
在英国	-13952
接受的	-13953
状态的	-13954
抵押贷款	-13955
生命周期	-13956
▁光	-13957
居高	-13958
网贷	-13959
以学生	-13960
在其中	-13961
大运河	-13962
敏感期	-13963
现代的	-13964
▁在我国	-13965
骨质增生	-13966
犯罪嫌疑人	-13967
一战	-13968
不治	-13969
八旗	-13970
石膏	-13971
端正	-13972
论点	-13973
一般会	-13974
值得一提	-13975
我们已经	-13976
借用	-13977
听取	-13978
家风	-13979
尼泊	-13980
座位	-13981
开办	-13982
演唱	-13983
生根	-13984
臭味	-13985
负重	-13986
▁分析	-13987
有效性	-13988
的唯一	-13989
要学会	-13990
▁第一个	-13991
根本没有	-13992
至关重要的	-13993
写在	-13994
削减	-13995
宣称	-13996
树枝	-13997
系的	-13998
和日本	-13999
法国的	-14000
玩手机	-14001
的标志	-14002
福建省	-14003
脑卒中	-14004
高效的	-14005
如何才能	-14006
就是通过	-14007
游牧民族	-14008
ction	-14009
山下	-14010
的画	-14011
集权	-14012
ish	-14013
▁我的	-14014
太大的	-14015
完成后	-14016
微企业	-14017
政权的	-14018
更应该	-14019
的直接	-14020
的错误	-14021
表面上	-14022
下列情形	-14023
产生影响	-14024
学前教育	-14025
也无	-14026
容积	-14027
征信	-14028
演进	-14029
车道	-14030
ner	-14031
分泌的	-14032
形势下	-14033
无数的	-14034
的妇女	-14035
工程建设	-14036
独生子女	-14037
这些症状	-14038
不离	-14039
京师	-14040
刻画	-14041
剥离	-14042
可控	-14043
和田	-14044
姜维	-14045
婚后	-14046
股民	-14047
蘑菇	-14048
躲避	-14049
▁日前	-14050
还会有	-14051
发展成为	-14052
这样的话	-14053
为官	-14054
低压	-14055
周刊	-14056
宿主	-14057
解体	-14058
与传统	-14059
季节性	-14060
able	-14061
故宫博物院	-14062
先祖	-14063
受过	-14064
坐骨	-14065
学案	-14066
带入	-14067
思潮	-14068
思议	-14069
要让	-14070
▁英语	-14071
与环境	-14072
合法的	-14073
它具有	-14074
情况的	-14075
推出的	-14076
提到了	-14077
的开始	-14078
英国人	-14079
颗粒物	-14080
历史学家	-14081
四个方面	-14082
社会发展	-14083
是中国历史上	-14084
▁罗	-14085
为国	-14086
天使	-14087
荔枝	-14088
路的	-14089
▁设计	-14090
了一份	-14091
确实是	-14092
的原因是	-14093
营业执照	-14094
▁曾	-14095
则在	-14096
向南	-14097
归根	-14098
忽必	-14099
水性	-14100
津贴	-14101
郑和	-14102
ain	-14103
只能在	-14104
帮助下	-14105
起义军	-14106
必不可少	-14107
相关部门	-14108
最高人民法院关于	-14109
万余	-14110
信奉	-14111
有几	-14112
沿岸	-14113
灌木	-14114
琥珀	-14115
直升	-14116
组装	-14117
统帅	-14118
是当时	-14119
的军队	-14120
的成分	-14121
每个学生	-14122
这种情况下	-14123
万名	-14124
优异	-14125
出任	-14126
则以	-14127
华南	-14128
对你	-14129
应为	-14130
比利	-14131
蓝天	-14132
证的	-14133
阀门	-14134
飞跃	-14135
之外的	-14136
条件和	-14137
的措施	-14138
而这个	-14139
夫妻双方	-14140
慢性炎症	-14141
都是一个	-14142
的主要内容	-14143
心脑血管疾病	-14144
rs	-14145
ws	-14146
▁重	-14147
上百	-14148
丝毫	-14149
中暑	-14150
分会	-14151
列表	-14152
对我	-14153
柑橘	-14154
渤海	-14155
的金	-14156
草药	-14157
虐待	-14158
▁人的	-14159
手中的	-14160
是现代	-14161
朋友圈	-14162
bl	-14163
与他	-14164
尽的	-14165
年末	-14166
矿山	-14167
腿部	-14168
落的	-14169
贮存	-14170
非遗	-14171
▁经常	-14172
专业课	-14173
了自己	-14174
应当在	-14175
时间段	-14176
正确地	-14177
氏家族	-14178
的父母	-14179
等活动	-14180
金融业	-14181
高血糖	-14182
五六	-14183
价款	-14184
全长	-14185
吴三	-14186
学制	-14187
学识	-14188
本体	-14189
水域	-14190
泌乳	-14191
餐厅	-14192
ach	-14193
▁既然	-14194
显而易	-14195
权利的	-14196
三国时期	-14197
有一部分	-14198
都有可能	-14199
依附	-14200
对的	-14201
师长	-14202
建材	-14203
观摩	-14204
通则	-14205
▁有人	-14206
大家在	-14207
教科文	-14208
西红柿	-14209
不可忽视	-14210
希望通过	-14211
有明显的	-14212
两面	-14213
二甲	-14214
全家	-14215
德的	-14216
料的	-14217
满分	-14218
知之	-14219
紫禁	-14220
脚下	-14221
血缘	-14222
读物	-14223
问答	-14224
你可能	-14225
功能和	-14226
向社会	-14227
所致的	-14228
比较大的	-14229
潜移默化	-14230
行政诉讼	-14231
买了	-14232
数年	-14233
有钱	-14234
皮脂	-14235
秋冬	-14236
ifi	-14237
▁小编	-14238
个月后	-14239
几乎所有	-14240
监督管理	-14241
知道自己	-14242
去掉	-14243
平整	-14244
底下	-14245
文公	-14246
正中	-14247
花期	-14248
以内的	-14249
在国外	-14250
的动力	-14251
陌生的	-14252
▁公元前	-14253
不得超过	-14254
市场上的	-14255
市场规模	-14256
▁茶	-14257
冷水	-14258
后宫	-14259
珐琅	-14260
透视	-14261
一步步	-14262
三部分	-14263
将自己	-14264
有明显	-14265
防火墙	-14266
ogle	-14267
中国企业	-14268
名声	-14269
无私	-14270
气泡	-14271
温水	-14272
版的	-14273
卵巢癌	-14274
可以对	-14275
同时在	-14276
展开了	-14277
旅游业	-14278
这些都	-14279
arch	-14280
最终导致	-14281
生产企业	-14282
的第一个	-14283
ement	-14284
科学发展观	-14285
▁会	-14286
低位	-14287
启超	-14288
图文	-14289
念头	-14290
性状	-14291
易感	-14292
易燃	-14293
路口	-14294
小时的	-14295
程序员	-14296
可以作为	-14297
每个孩子	-14298
▁美	-14299
他与	-14300
性或	-14301
日元	-14302
汇聚	-14303
人群中	-14304
单一的	-14305
总数的	-14306
有兴趣	-14307
的改革	-14308
第一百	-14309
资产管理	-14310
声誉	-14311
恋爱	-14312
房颤	-14313
热烈	-14314
素食	-14315
花开	-14316
▁怎样	-14317
玩游戏	-14318
纪录片	-14319
下面我们	-14320
在临床上	-14321
帮助他们	-14322
上调	-14323
取暖	-14324
在意	-14325
场上	-14326
大败	-14327
嬴政	-14328
楷书	-14329
洗净	-14330
清澈	-14331
香烟	-14332
出发点	-14333
可以被	-14334
发展规划	-14335
犯罪行为	-14336
买方	-14337
幼虫	-14338
打好	-14339
私自	-14340
解说	-14341
警报	-14342
透气	-14343
市政府	-14344
低迷	-14345
名列	-14346
后被	-14347
成才	-14348
折扣	-14349
探险	-14350
施用	-14351
过热	-14352
低血压	-14353
十二指	-14354
司匹林	-14355
尼泊尔	-14356
是一样的	-14357
这样一种	-14358
有什么区别	-14359
久了	-14360
功用	-14361
吉尔	-14362
吴王	-14363
桂林	-14364
起因	-14365
安全和	-14366
来表达	-14367
某一个	-14368
阐述了	-14369
广泛关注	-14370
一经	-14371
亢进	-14372
液态	-14373
火焰	-14374
牢牢	-14375
盆底	-14376
肇事	-14377
都应	-14378
黄土	-14379
一般不	-14380
不停地	-14381
与企业	-14382
决定着	-14383
文章的	-14384
梁启超	-14385
在这个过程中	-14386
注意力不集中	-14387
万辆	-14388
曾是	-14389
积分	-14390
主动脉	-14391
低收入	-14392
work	-14393
也有一些	-14394
在这方面	-14395
就意味着	-14396
排出体外	-14397
生育能力	-14398
ology	-14399
之乡	-14400
但要	-14401
唱歌	-14402
排在	-14403
此事	-14404
直觉	-14405
草本	-14406
销商	-14407
陶冶	-14408
陶渊	-14409
保证了	-14410
给出的	-14411
无处不在	-14412
普通高中	-14413
+"	-14414
亚太	-14415
倍的	-14416
半数	-14417
厌恶	-14418
疾控	-14419
豆浆	-14420
乳腺炎	-14421
学院的	-14422
总量的	-14423
研究了	-14424
能有效	-14425
雄激素	-14426
工伤保险	-14427
免除	-14428
昨日	-14429
看病	-14430
让它	-14431
限定	-14432
"),	-14433
是用来	-14434
的操作	-14435
大力发展	-14436
天文学家	-14437
▁反	-14438
▁您	-14439
一分	-14440
上将	-14441
好比	-14442
这只	-14443
写作业	-14444
和组织	-14445
在工作	-14446
生存的	-14447
退行性	-14448
颜色的	-14449
今天小编	-14450
认为自己	-14451
排查	-14452
易患	-14453
残余	-14454
置换	-14455
而起	-14456
职权	-14457
胞胎	-14458
赞同	-14459
走的	-14460
越冬	-14461
一点点	-14462
保证金	-14463
如下图	-14464
家庭中	-14465
的一天	-14466
转化成	-14467
这都是	-14468
准备工作	-14469
八十	-14470
凹陷	-14471
和后	-14472
急诊	-14473
想过	-14474
投身	-14475
排污	-14476
明知	-14477
查明	-14478
洞察	-14479
用具	-14480
综述	-14481
罪犯	-14482
英镑	-14483
词的	-14484
购置	-14485
在生产	-14486
消费品	-14487
课堂教学中	-14488
高血压患者	-14489
久远	-14490
刚性	-14491
因地	-14492
曾说	-14493
醒来	-14494
▁影响	-14495
▁然后	-14496
制造的	-14497
的认知	-14498
就有可能	-14499
燃料电池	-14500
两项	-14501
但有	-14502
关东	-14503
剖宫	-14504
宫缩	-14505
带上	-14506
我不	-14507
烟花	-14508
?""	-14509
健康和	-14510
教学法	-14511
欧元区	-14512
知道的	-14513
这么说	-14514
因素的影响	-14515
微信公众号	-14516
》;	-14517
三岁	-14518
先从	-14519
内核	-14520
必有	-14521
本性	-14522
猪瘟	-14523
管内	-14524
节律	-14525
触觉	-14526
读过	-14527
谈起	-14528
体系和	-14529
基斯坦	-14530
建筑群	-14531
的关注	-14532
经典的	-14533
而我们	-14534
需要有	-14535
的大学生	-14536
贷款利率	-14537
经济社会发展	-14538
仓储	-14539
按压	-14540
步枪	-14541
灯具	-14542
竞技	-14543
维新	-14544
膜的	-14545
齿轮	-14546
供参考	-14547
动植物	-14548
和处理	-14549
培养了	-14550
成功率	-14551
农村土地	-14552
投资基金	-14553
↓↓	-14554
候选	-14555
养猪	-14556
切口	-14557
就来	-14558
熟能	-14559
田间	-14560
药剂	-14561
赞赏	-14562
输血	-14563
预见	-14564
完全是	-14565
更名为	-14566
的制度	-14567
的身份	-14568
统称为	-14569
罕见的	-14570
读课文	-14571
▁dis	-14572
乾隆皇帝	-14573
▁&	-14574
古时	-14575
在天	-14576
尿急	-14577
常住	-14578
战火	-14579
汇票	-14580
沦为	-14581
红素	-14582
藏书	-14583
以为是	-14584
在城市	-14585
甚至有	-14586
的人际	-14587
赋予了	-14588
高中生	-14589
▁接下来	-14590
上皮细胞	-14591
大部分的	-14592
个案	-14593
告别	-14594
和多	-14595
坐着	-14596
并行	-14597
序幕	-14598
的头	-14599
转速	-14600
面板	-14601
领略	-14602
▁前言	-14603
卫生部	-14604
参考书	-14605
应纳税	-14606
的内涵	-14607
致癌物	-14608
价格上涨	-14609
春秋战国	-14610
空气净化	-14611
如意	-14612
惯例	-14613
明珠	-14614
用眼	-14615
▁孔子	-14616
▁实验	-14617
发脾气	-14618
摄像机	-14619
相对的	-14620
第一部	-14621
绝对的	-14622
十二指肠	-14623
这个时期	-14624
一想	-14625
上限	-14626
体格	-14627
假性	-14628
者是	-14629
讲了	-14630
风筝	-14631
景德镇	-14632
沉重的	-14633
的一份	-14634
目标和	-14635
等同于	-14636
工作效率	-14637
兑换	-14638
写法	-14639
姆斯	-14640
特尔	-14641
肩膀	-14642
顶层	-14643
介绍说	-14644
好习惯	-14645
数学家	-14646
是一名	-14647
致病菌	-14648
下腹	-14649
保有	-14650
动了	-14651
厌食	-14652
尘埃	-14653
就说	-14654
幼年	-14655
惊喜	-14656
晋升	-14657
果断	-14658
跳跃	-14659
饺子	-14660
sci	-14661
想而知	-14662
涉及的	-14663
个人卫生	-14664
总的来说	-14665
五谷	-14666
低价	-14667
担负	-14668
朝着	-14669
现已	-14670
而喻	-14671
量刑	-14672
阑尾	-14673
降水	-14674
rom	-14675
传播的	-14676
和国际	-14677
所以他	-14678
是关键	-14679
何为	-14680
应收	-14681
特意	-14682
笔试	-14683
经纪	-14684
羡慕	-14685
钢板	-14686
问我	-14687
特征是	-14688
无法正常	-14689
更多的人	-14690
ik	-14691
使我	-14692
动漫	-14693
子弹	-14694
少林	-14695
尚无	-14696
惯性	-14697
每种	-14698
洗涤	-14699
盘点	-14700
跨度	-14701
who	-14702
中出现	-14703
出色的	-14704
原因的	-14705
独有的	-14706
规模化	-14707
金融服务	-14708
▁inter	-14709
不长	-14710
举报	-14711
半径	-14712
后才	-14713
平平	-14714
抽动	-14715
激起	-14716
如果把	-14717
想到的	-14718
由中国	-14719
的区域	-14720
的水果	-14721
要通过	-14722
心理问题	-14723
教学活动	-14724
功利	-14725
基部	-14726
山市	-14727
正气	-14728
烹调	-14729
直属	-14730
磷脂	-14731
第安	-14732
见识	-14733
过重	-14734
ath	-14735
告诉我	-14736
实施了	-14737
的年代	-14738
肺癌的	-14739
肿瘤的	-14740
能达到	-14741
对其进行	-14742
▁名	-14743
上书	-14744
减压	-14745
当了	-14746
溶于	-14747
滋润	-14748
犯错	-14749
疏通	-14750
病逝	-14751
的要	-14752
认购	-14753
准备好	-14754
极少数	-14755
一旦出现	-14756
每一个人	-14757
究其原因	-14758
资产负债	-14759
提高学生的	-14760
一款	-14761
三农	-14762
又可	-14763
复原	-14764
安防	-14765
江东	-14766
皮损	-14767
银元	-14768
吴三桂	-14769
等其他	-14770
自然是	-14771
举个例子	-14772
文化产业	-14773
某种程度上	-14774
的重要内容	-14775
弱的	-14776
糖分	-14777
设在	-14778
一本书	-14779
上来说	-14780
也只是	-14781
十分的	-14782
机械化	-14783
病理性	-14784
经营权	-14785
的发展和	-14786
▁米	-14787
免受	-14788
变大	-14789
变态	-14790
境地	-14791
并可	-14792
抽筋	-14793
旧址	-14794
解决的	-14795
"...	-14796
世纪以来	-14797
比较好的	-14798
马来西亚	-14799
下手	-14800
举足	-14801
低廉	-14802
体能	-14803
夫子	-14804
家电	-14805
小额	-14806
师德	-14807
文史	-14808
木耳	-14809
跑到	-14810
韩愈	-14811
▁nt	-14812
印第安	-14813
就是以	-14814
文学的	-14815
方向的	-14816
方法论	-14817
管理模式	-14818
全国人大常委会	-14819
一棵	-14820
精湛	-14821
预科	-14822
▁工作	-14823
准备金	-14824
可以向	-14825
器官的	-14826
因为这些	-14827
统计数据	-14828
主治	-14829
你看	-14830
农家	-14831
医护	-14832
墙上	-14833
持股	-14834
教案	-14835
昂贵	-14836
炒股	-14837
瘢痕	-14838
相等	-14839
落户	-14840
不仅有	-14841
军队的	-14842
区别于	-14843
参与了	-14844
情感的	-14845
知名度	-14846
航空航天	-14847
调查发现	-14848
业态	-14849
搞好	-14850
攻破	-14851
能把	-14852
重者	-14853
雏形	-14854
mic	-14855
塑料袋	-14856
所以要	-14857
淋巴瘤	-14858
甚至连	-14859
sl	-14860
写过	-14861
制裁	-14862
吃饱	-14863
度量	-14864
敬业	-14865
环氧	-14866
粉碎	-14867
讲堂	-14868
轴承	-14869
遗存	-14870
黄花	-14871
和一个	-14872
和各种	-14873
教育中	-14874
的一段	-14875
仙人	-14876
勤劳	-14877
升温	-14878
同仁	-14879
应从	-14880
建有	-14881
时而	-14882
朱熹	-14883
没了	-14884
联络	-14885
ceo	-14886
各行各	-14887
有几个	-14888
节度使	-14889
rh	-14890
▁{	-14891
太少	-14892
的下	-14893
的五	-14894
迷茫	-14895
闲置	-14896
吸烟者	-14897
实用的	-14898
我发现	-14899
提高到	-14900
独一无	-14901
网站的	-14902
可以利用	-14903
计划生育	-14904
在很大程度上	-14905
▁防	-14906
公办	-14907
最短	-14908
武夷	-14909
波长	-14910
温柔	-14911
离职	-14912
▁运动	-14913
作出的	-14914
你是否	-14915
历史中	-14916
室内的	-14917
相似的	-14918
提高学生	-14919
睡眠不足	-14920
职业资格	-14921
后悔	-14922
国度	-14923
尿管	-14924
执着	-14925
水产	-14926
法语	-14927
给药	-14928
菲特	-14929
eng	-14930
与健康	-14931
占领了	-14932
去世后	-14933
型企业	-14934
增加到	-14935
的巨大	-14936
象征着	-14937
阶段性	-14938
学院教授	-14939
欢迎大家	-14940
飞速发展	-14941
征求意见稿	-14942
自己的身体	-14943
亲身	-14944
信赖	-14945
到大	-14946
时为	-14947
水下	-14948
灭了	-14949
肥厚	-14950
菜单	-14951
不平等	-14952
代表作	-14953
嵌入式	-14954
是一条	-14955
模型的	-14956
皮肤的	-14957
都是从	-14958
专业人士	-14959
患者出现	-14960
指导学生	-14961
教育资源	-14962
预防措施	-14963
ry	-14964
上演	-14965
下图	-14966
武士	-14967
财力	-14968
运送	-14969
▁只有	-14970
▁语言	-14971
依然是	-14972
局域网	-14973
忽必烈	-14974
相比于	-14975
破坏了	-14976
uv	-14977
▁受	-14978
一万	-14979
加减	-14980
周瑜	-14981
奥林	-14982
手上	-14983
糖类	-14984
负有	-14985
辨认	-14986
次会议	-14987
的一致	-14988
的教师	-14989
级别的	-14990
都认为	-14991
非常好	-14992
激发学生	-14993
属于自己的	-14994
▁各	-14995
临界	-14996
冻结	-14997
大为	-14998
测绘	-14999
血脉	-15000
计入	-15001
证件	-15002
货运	-15003
难的	-15004
江西省	-15005
蒙古族	-15006
专家提醒	-15007
留守儿童	-15008
位列	-15009
华丽	-15010
华尔	-15011
定论	-15012
年版	-15013
灵芝	-15014
爆竹	-15015
玄武	-15016
萧何	-15017
食材	-15018
ibm	-15019
▁公司	-15020
了解下	-15021
没有被	-15022
自尊心	-15023
过度的	-15024
乳腺增生	-15025
商业秘密	-15026
开发利用	-15027
的时候就	-15028
相关知识	-15029
任教	-15030
历年	-15031
并被	-15032
见了	-15033
黄斑	-15034
会带来	-15035
可靠的	-15036
的道理	-15037
至少有	-15038
史料记载	-15039
大部分人	-15040
深入研究	-15041
进一步的	-15042
遗憾的是	-15043
仍旧	-15044
充斥	-15045
光谱	-15046
千秋	-15047
故而	-15048
暴跌	-15049
杀虫	-15050
在政治	-15051
学检查	-15052
设计与	-15053
全新	-15054
其对	-15055
减慢	-15056
分之	-15057
又一	-15058
拍照	-15059
没收	-15060
清净	-15061
脚本	-15062
主动性	-15063
和实践	-15064
工程的	-15065
中国人民大学	-15066
交响	-15067
亦是	-15068
京都	-15069
大方	-15070
机房	-15071
柔性	-15072
游玩	-15073
关心的	-15074
受害者	-15075
客户的	-15076
有一条	-15077
石家庄	-15078
聪明的	-15079
证监会	-15080
还具有	-15081
锂电池	-15082
女性不孕	-15083
普遍认为	-15084
头顶	-15085
子等	-15086
封装	-15087
小姐	-15088
徘徊	-15089
推算	-15090
栽植	-15091
火热	-15092
简历	-15093
脉搏	-15094
都想	-15095
麦克	-15096
▁德国	-15097
兵马俑	-15098
带领下	-15099
的摄入	-15100
长方形	-15101
一两	-15102
专访	-15103
事儿	-15104
史的	-15105
在你	-15106
导电	-15107
引流	-15108
抵扣	-15109
来潮	-15110
读完	-15111
赏析	-15112
正是在	-15113
货币的	-15114
一系列的	-15115
安全问题	-15116
很少有人	-15117
现代医学	-15118
某种意义上	-15119
dd	-15120
征集	-15121
约肌	-15122
缺损	-15123
以此来	-15124
设立了	-15125
做的事情	-15126
媒体报道	-15127
世博	-15128
之感	-15129
侮辱	-15130
大肆	-15131
指纹	-15132
时才	-15133
残忍	-15134
水痘	-15135
空的	-15136
这本	-15137
▁来自	-15138
中长期	-15139
在日常	-15140
性早熟	-15141
透明的	-15142
不可思议	-15143
两会	-15144
交纳	-15145
公寓	-15146
升降	-15147
卖方	-15148
嘴里	-15149
多加	-15150
肛管	-15151
走访	-15152
get	-15153
▁艺术	-15154
特殊性	-15155
的一类	-15156
的形状	-15157
苏东坡	-15158
这三种	-15159
附件炎	-15160
长期处于	-15161
▁java	-15162
是不一样的	-15163
古朴	-15164
揭开	-15165
此人	-15166
热议	-15167
百余	-15168
科幻	-15169
萧条	-15170
里斯	-15171
▁这样	-15172
前面的	-15173
基本面	-15174
增长了	-15175
掌握的	-15176
领导下	-15177
也会出现	-15178
▁心	-15179
修补	-15180
兰州	-15181
口诀	-15182
地为	-15183
大专	-15184
害虫	-15185
推销	-15186
整洁	-15187
本位	-15188
甜食	-15189
界线	-15190
的单	-15191
立于	-15192
艾灸	-15193
gre	-15194
保护和	-15195
很少有	-15196
也不知道	-15197
巴基斯坦	-15198
生活水平	-15199
▁我们都知道	-15200
口渴	-15201
实录	-15202
巴比	-15203
惊叹	-15204
扦插	-15205
讽刺	-15206
贫富	-15207
赞扬	-15208
隐居	-15209
▁im	-15210
不具有	-15211
电动机	-15212
一个孩子	-15213
其中之一	-15214
性阴道炎	-15215
人情	-15216
原发	-15217
合力	-15218
对联	-15219
开门	-15220
性命	-15221
最能	-15222
李斯	-15223
猫咪	-15224
▁包括	-15225
低成本	-15226
发生后	-15227
宋徽宗	-15228
最小的	-15229
消失了	-15230
甚至还	-15231
生活环境	-15232
的作用下	-15233
的重要手段	-15234
丘陵	-15235
后台	-15236
告诫	-15237
接连	-15238
时钟	-15239
致人	-15240
运气	-15241
学研究	-15242
对健康	-15243
适合于	-15244
适量的	-15245
陌生人	-15246
明确指出	-15247
老年痴呆	-15248
可以追溯到	-15249
不时	-15250
先兆	-15251
百花	-15252
肺气	-15253
讲讲	-15254
邮政	-15255
作者的	-15256
俱乐部	-15257
十八大	-15258
家长会	-15259
居住在	-15260
工作和	-15261
脂蛋白	-15262
一种新的	-15263
建筑设计	-15264
几乎所有的	-15265
hb	-15266
墓地	-15267
官府	-15268
已然	-15269
归类	-15270
段落	-15271
河东	-15272
生日	-15273
白马	-15274
皇上	-15275
突起	-15276
薪资	-15277
教育与	-15278
生物质	-15279
的产物	-15280
的贡献	-15281
社会和	-15282
这里面	-15283
没有办法	-15284
管理体系	-15285
重要的意义	-15286
他和	-15287
在有	-15288
快的	-15289
搬运	-15290
是你	-15291
有别	-15292
胸腔	-15293
逮捕	-15294
除草	-15295
cho	-15296
iso	-15297
为单位	-15298
当前的	-15299
的结合	-15300
诞生了	-15301
可以有效	-15302
相比之下	-15303
都离不开	-15304
君臣	-15305
守法	-15306
容纳	-15307
无量	-15308
航行	-15309
跌幅	-15310
部委	-15311
金石	-15312
▁其他	-15313
对外开放	-15314
财政收入	-15315
中是	-15316
兴旺	-15317
工农	-15318
或用	-15319
阴虚	-15320
龋齿	-15321
土壤中	-15322
症状的	-15323
ance	-15324
二十世纪	-15325
各种原因	-15326
个小	-15327
嗜睡	-15328
年是	-15329
月龄	-15330
神庙	-15331
酿造	-15332
重构	-15333
阳台	-15334
可行的	-15335
和质量	-15336
学习方式	-15337
上好	-15338
壁垒	-15339
室的	-15340
得更	-15341
总分	-15342
病等	-15343
翰林	-15344
▁市场	-15345
人群的	-15346
强调了	-15347
持续的	-15348
还不够	-15349
造就了	-15350
都存在	-15351
年的时候	-15352
结果表明	-15353
这个地方	-15354
阿司匹林	-15355
需要我们	-15356
保值	-15357
创客	-15358
合规	-15359
大名	-15360
将有	-15361
我家	-15362
数次	-15363
树林	-15364
的真	-15365
调剂	-15366
随地	-15367
顶峰	-15368
黄埔	-15369
性功能	-15370
球蛋白	-15371
代表人物	-15372
非常好的	-15373
中国人民银行	-15374
停经	-15375
呼唤	-15376
挂在	-15377
挪威	-15378
改制	-15379
机电	-15380
泉州	-15381
看好	-15382
规程	-15383
赫赫	-15384
铭文	-15385
损失的	-15386
缺血性	-15387
青霉素	-15388
mmhg	-15389
神经细胞	-15390
与会	-15391
交汇	-15392
从古	-15393
共用	-15394
填补	-15395
对新	-15396
导游	-15397
中使用	-15398
中医学	-15399
只要有	-15400
在学生	-15401
失败的	-15402
年全球	-15403
括约肌	-15404
搞清楚	-15405
董事会	-15406
风格的	-15407
人工流产	-15408
可以减少	-15409
开始出现	-15410
▁_	-15411
光荣	-15412
再去	-15413
区和	-15414
复活	-15415
屏蔽	-15416
承办	-15417
无偿	-15418
每逢	-15419
研学	-15420
老家	-15421
育苗	-15422
写了一	-15423
又分为	-15424
新鲜的	-15425
尽量不要	-15426
必须具备	-15427
有这样的	-15428
上台	-15429
从容	-15430
回路	-15431
盆景	-15432
罗汉	-15433
美化	-15434
这支	-15435
陆游	-15436
也都是	-15437
拥有了	-15438
给人以	-15439
土地使用	-15440
在实践中	-15441
睡眠质量	-15442
颈椎病的	-15443
db	-15444
拿来	-15445
海鲜	-15446
用语	-15447
裸露	-15448
达尔	-15449
通路	-15450
隐瞒	-15451
食疗	-15452
年代末	-15453
由国家	-15454
承担责任	-15455
民事行为	-15456
的是什么	-15457
计算机网络	-15458
fe	-15459
js	-15460
▁题	-15461
二元	-15462
原生	-15463
发包	-15464
受累	-15465
就用	-15466
战中	-15467
有四	-15468
经血	-15469
躯干	-15470
通报	-15471
阵营	-15472
作用是	-15473
成员国	-15474
政府和	-15475
能力差	-15476
为了防止	-15477
这是由于	-15478
二十四节气	-15479
▁过	-15480
下文	-15481
会将	-15482
剥削	-15483
名片	-15484
山川	-15485
日夜	-15486
有待	-15487
细化	-15488
肠炎	-15489
赤字	-15490
越国	-15491
软化	-15492
造像	-15493
事业的	-15494
召开的	-15495
大学和	-15496
感染了	-15497
或者有	-15498
是学习	-15499
消化的	-15500
的场所	-15501
胃溃疡	-15502
对于我们	-15503
历朝	-15504
家用	-15505
巡抚	-15506
开窗	-15507
报复	-15508
疲倦	-15509
诗意	-15510
轿车	-15511
辖区	-15512
震颤	-15513
sat	-15514
建造的	-15515
的利益	-15516
乡村振兴	-15517
精索静脉曲张	-15518
不和	-15519
佛经	-15520
减免	-15521
剧本	-15522
力争	-15523
强壮	-15524
很早	-15525
是小	-15526
民航	-15527
流浪	-15528
电厂	-15529
礼记	-15530
聘请	-15531
赖以	-15532
▁南京	-15533
的理由	-15534
可以促进	-15535
主干	-15536
党和	-15537
制宜	-15538
十足	-15539
固有	-15540
开源	-15541
烧制	-15542
管仲	-15543
米饭	-15544
重于	-15545
预设	-15546
风情	-15547
为我国	-15548
更不能	-15549
科技的	-15550
进校园	-15551
一氧化碳	-15552
医疗卫生	-15553
技术创新	-15554
古都	-15555
号的	-15556
居士	-15557
并称	-15558
涂层	-15559
狩猎	-15560
瓣膜	-15561
群的	-15562
肛周	-15563
骗取	-15564
因为这	-15565
在现代	-15566
思考和	-15567
提升了	-15568
设置了	-15569
过敏原	-15570
因为我们	-15571
在教学中	-15572
指导思想	-15573
鼓励学生	-15574
三星	-15575
初三	-15576
吃完	-15577
心境	-15578
拿起	-15579
授精	-15580
提议	-15581
收养	-15582
放手	-15583
期末	-15584
频发	-15585
黑板	-15586
不适应	-15587
与时俱	-15588
中指出	-15589
时间是	-15590
的全部	-15591
管理法	-15592
比较常见的	-15593
▁system	-15594
kd	-15595
三条	-15596
上加	-15597
两组	-15598
之年	-15599
你对	-15600
光子	-15601
可与	-15602
吾尔	-15603
和人	-15604
回头	-15605
张家	-15606
弥陀	-15607
抬高	-15608
方能	-15609
显赫	-15610
浮肿	-15611
花瓣	-15612
隐匿	-15613
副校长	-15614
如果要	-15615
是全国	-15616
为自己的	-15617
rf	-15618
▁次	-15619
不洁	-15620
两端	-15621
亟待	-15622
代偿	-15623
平日	-15624
老大	-15625
耳鼻	-15626
融化	-15627
anc	-15628
▁管理	-15629
和其它	-15630
的植物	-15631
中的一种	-15632
联合国教科文	-15633
之谜	-15634
亲情	-15635
在那	-15636
富于	-15637
报销	-15638
撕裂	-15639
脑力	-15640
苗族	-15641
风口	-15642
不包括	-15643
会引发	-15644
房产证	-15645
的类型	-15646
工业生产	-15647
很多患者	-15648
值得一提的是	-15649
古称	-15650
台山	-15651
室温	-15652
总线	-15653
提要	-15654
珍品	-15655
离合	-15656
蚊子	-15657
装甲	-15658
骨架	-15659
高涨	-15660
▁推荐	-15661
▁文化	-15662
也正是	-15663
成立于	-15664
才会有	-15665
是一场	-15666
是多么	-15667
的职业	-15668
部尚书	-15669
▁俗话说	-15670
中央银行	-15671
内陆	-15672
团圆	-15673
妹妹	-15674
客家	-15675
弄清	-15676
棕色	-15677
胡同	-15678
▁法律	-15679
不到位	-15680
不合格	-15681
中记载	-15682
十八年	-15683
思维和	-15684
教孩子	-15685
的制作	-15686
也可以是	-15687
考古学家	-15688
we	-15689
▁郑	-15690
后就	-15691
商周	-15692
天王	-15693
布线	-15694
机率	-15695
歌剧	-15696
溺爱	-15697
献帝	-15698
类是	-15699
谋略	-15700
初学者	-15701
欧阳修	-15702
治疗和	-15703
的动物	-15704
亲子关系	-15705
你会发现	-15706
▁叶	-15707
仕途	-15708
修理	-15709
写好	-15710
姆林	-15711
感触	-15712
搬迁	-15713
无色	-15714
核准	-15715
毛笔	-15716
浮动	-15717
海默	-15718
红旗	-15719
自考	-15720
谋士	-15721
造假	-15722
陶器	-15723
nat	-15724
劳动法	-15725
品牌的	-15726
年以后	-15727
的统一	-15728
的都是	-15729
超检查	-15730
国家统计局	-15731
是最重要的	-15732
▁》	-15733
公私	-15734
加拉	-15735
抓好	-15736
白领	-15737
答辩	-15738
进军	-15739
长生	-15740
▁高考	-15741
北京的	-15742
发生时	-15743
增生的	-15744
对胎儿	-15745
纪念日	-15746
早期发现	-15747
都不知道	-15748
互通	-15749
体表	-15750
打着	-15751
整套	-15752
武功	-15753
以防止	-15754
哪一个	-15755
地位和	-15756
中国历史	-15757
在课堂上	-15758
通过各种	-15759
▁点	-15760
人说	-15761
和我	-15762
大成	-15763
性是	-15764
支部	-15765
糊涂	-15766
翻身	-15767
藏在	-15768
与应用	-15769
兴趣和	-15770
它们在	-15771
平台的	-15772
所用的	-15773
早治疗	-15774
的阅读	-15775
纪念碑	-15776
工程专业	-15777
私募基金	-15778
节能减排	-15779
血液中的	-15780
领导小组	-15781
一辆	-15782
个省	-15783
安宁	-15784
官网	-15785
定金	-15786
权重	-15787
油的	-15788
中没有	-15789
二手房	-15790
会逐渐	-15791
第一大	-15792
组成员	-15793
计划的	-15794
企业经营	-15795
ication	-15796
do	-15797
出水	-15798
基底	-15799
处境	-15800
大兴	-15801
如是	-15802
官兵	-15803
层级	-15804
死去	-15805
画作	-15806
草坪	-15807
金国	-15808
▁信息	-15809
弄清楚	-15810
确定为	-15811
▁如果说	-15812
强调的是	-15813
有的孩子	-15814
校园欺凌	-15815
zh	-15816
▁种	-15817
不远	-15818
全县	-15819
吸气	-15820
外地	-15821
强力	-15822
我把	-15823
效用	-15824
耐磨	-15825
迷惑	-15826
防空	-15827
顽强	-15828
五千年	-15829
保险人	-15830
在许多	-15831
通过网络	-15832
随处可见	-15833
给大家介绍	-15834
进一步加强	-15835
保罗	-15836
做完	-15837
写到	-15838
减低	-15839
华中	-15840
圆柱	-15841
教徒	-15842
毋庸	-15843
稍有	-15844
终点	-15845
美感	-15846
考上	-15847
而从	-15848
著有	-15849
该项	-15850
避险	-15851
全球的	-15852
分享一下	-15853
家庭暴力	-15854
帮助我们	-15855
货币基金	-15856
到目前为止	-15857
减灾	-15858
出手	-15859
后勤	-15860
弱点	-15861
打针	-15862
疤痕	-15863
白玉	-15864
而至	-15865
具有的	-15866
有很多种	-15867
自我意识	-15868
乔木	-15869
书店	-15870
字典	-15871
就以	-15872
打通	-15873
此项	-15874
淮南	-15875
红花	-15876
而致	-15877
躺在	-15878
ime	-15879
不出来	-15880
也是在	-15881
宇宙的	-15882
采取措施	-15883
▁甲	-15884
之王	-15885
书香	-15886
印证	-15887
固态	-15888
大火	-15889
宠爱	-15890
峰值	-15891
成千	-15892
抗拒	-15893
检出	-15894
民歌	-15895
水位	-15896
而当	-15897
门前	-15898
闪电	-15899
ite	-15900
复印件	-15901
早产儿	-15902
机构和	-15903
的地步	-15904
签订的	-15905
聚合物	-15906
优惠政策	-15907
千百年来	-15908
深度学习	-15909
青藏高原	-15910
一再	-15911
也从	-15912
克的	-15913
单调	-15914
极力	-15915
档次	-15916
王某	-15917
长效	-15918
▁建筑	-15919
▁综合	-15920
只要你	-15921
对宝宝	-15922
并结合	-15923
着眼于	-15924
神秘的	-15925
蒙古人	-15926
我国经济	-15927
随着年龄的增长	-15928
修辞	-15929
听众	-15930
太小	-15931
将它	-15932
改名	-15933
编织	-15934
降糖	-15935
霸王	-15936
也许是	-15937
优质的	-15938
它们是	-15939
幽门螺	-15940
比较低	-15941
没办法	-15942
第一代	-15943
讲述了	-15944
购买的	-15945
进行性	-15946
道德经	-15947
人类文明	-15948
制度改革	-15949
基因突变	-15950
进行研究	-15951
两句	-15952
交错	-15953
前瞻	-15954
听话	-15955
好学	-15956
所称	-15957
提案	-15958
直隶	-15959
自控	-15960
道士	-15961
野蛮	-15962
院的	-15963
▁"。	-15964
▁导致	-15965
不得已	-15966
对儿童	-15967
髋关节	-15968
cv	-15969
一节	-15970
上半	-15971
公示	-15972
只见	-15973
各家	-15974
含糖	-15975
多重	-15976
天鹅	-15977
局的	-15978
庙宇	-15979
树上	-15980
锁定	-15981
镜片	-15982
主要在	-15983
以此为	-15984
其它的	-15985
史学家	-15986
同性恋	-15987
奥林匹	-15988
有用的	-15989
污染源	-15990
组织中	-15991
要考虑	-15992
设备和	-15993
还应该	-15994
领域中	-15995
▁维生素	-15996
大肠杆菌	-15997
的影响力	-15998
交警	-15999
向西	-16000
坏了	-16001
暴发	-16002
着陆	-16003
私营	-16004
胸怀	-16005
部下	-16006
不明白	-16007
开展的	-16008
最长的	-16009
的统治	-16010
主任医师	-16011
提供一个	-16012
民族文化	-16013
的特点是	-16014
经济危机	-16015
▁十	-16016
主角	-16017
小米	-16018
弃疾	-16019
曾被	-16020
石碑	-16021
获益	-16022
一致的	-16023
古罗马	-16024
四年级	-16025
有一座	-16026
游戏中	-16027
的作者	-16028
bt	-16029
▁龙	-16030
一则	-16031
前线	-16032
反正	-16033
央视	-16034
它将	-16035
开盘	-16036
得太	-16037
斑点	-16038
村的	-16039
根廷	-16040
涉嫌	-16041
潴留	-16042
短路	-16043
红薯	-16044
脑袋	-16045
sql	-16046
动画片	-16047
可行性	-16048
完整性	-16049
怎么能	-16050
小学语文	-16051
还有就是	-16052
幽门螺杆菌	-16053
哲理	-16054
女神	-16055
就叫	-16056
想的	-16057
成形	-16058
明智	-16059
)、《	-16060
得出的	-16061
是古代	-16062
最适合	-16063
每一种	-16064
自己做	-16065
身体素质	-16066
低估	-16067
她在	-16068
射频	-16069
尿素	-16070
带你	-16071
服役	-16072
生子	-16073
白的	-16074
皇权	-16075
讨厌	-16076
金陵	-16077
之上的	-16078
保护好	-16079
摩托车	-16080
有益的	-16081
预防和	-16082
宏观调控	-16083
强有力的	-16084
退休年龄	-16085
sk	-16086
两层	-16087
伤心	-16088
典雅	-16089
初一	-16090
取名	-16091
山县	-16092
彩绘	-16093
祭祖	-16094
远征	-16095
骆驼	-16096
▁城市	-16097
与文化	-16098
之中的	-16099
年代的	-16100
监护人	-16101
诗人的	-16102
豆制品	-16103
▁大多数	-16104
为基础的	-16105
工作时间	-16106
工程技术	-16107
整个社会	-16108
逐渐成为	-16109
为生	-16110
偏见	-16111
内阁	-16112
塑性	-16113
宏大	-16114
案情	-16115
水浒	-16116
王维	-16117
索引	-16118
肠癌	-16119
腰酸	-16120
行程	-16121
钙质	-16122
不正确	-16123
位皇帝	-16124
只知道	-16125
生成的	-16126
神奇的	-16127
医嘱	-16128
味觉	-16129
巴赫	-16130
师大	-16131
模范	-16132
油墨	-16133
洛伊	-16134
特区	-16135
赌博	-16136
高利	-16137
pet	-16138
一季度	-16139
一生中	-16140
和支持	-16141
恰当的	-16142
抽动症	-16143
支付的	-16144
有影响	-16145
一般而言	-16146
提出问题	-16147
并由	-16148
排队	-16149
有二	-16150
欧亚	-16151
洗钱	-16152
溯源	-16153
理化	-16154
畏惧	-16155
血型	-16156
说文	-16157
过少	-16158
间距	-16159
隔热	-16160
雅典	-16161
"(《	-16162
习惯于	-16163
特点和	-16164
的大门	-16165
的热情	-16166
这里是	-16167
但是我们	-16168
领导干部	-16169
解除劳动合同	-16170
但因	-16171
偏食	-16172
写入	-16173
办案	-16174
加索	-16175
劣势	-16176
引出	-16177
抒发	-16178
新高	-16179
无能	-16180
男方	-16181
类和	-16182
细小	-16183
该国	-16184
ext	-16185
▁就是	-16186
为首的	-16187
决定性	-16188
切除术	-16189
又一个	-16190
比其他	-16191
深厚的	-16192
王羲之	-16193
的证据	-16194
可想而知	-16195
哺乳动物	-16196
妇科检查	-16197
中华民族的	-16198
▁向	-16199
亚马	-16200
口水	-16201
它所	-16202
送达	-16203
哈萨克	-16204
政府对	-16205
生动的	-16206
维吾尔	-16207
而现在	-16208
诞生的	-16209
一般不会	-16210
容易产生	-16211
工作岗位	-16212
性腺激素	-16213
一起来看看吧	-16214
务必	-16215
必经	-16216
月子	-16217
求是	-16218
特权	-16219
祸首	-16220
芹菜	-16221
要高	-16222
龟头	-16223
fda	-16224
▁系统	-16225
区域内	-16226
多方面	-16227
就知道	-16228
签订了	-16229
紫禁城	-16230
▁互联网	-16231
政府工作	-16232
希望对大家	-16233
表达自己的	-16234
一朝	-16235
凝结	-16236
天花	-16237
幼稚	-16238
手持	-16239
未被	-16240
清宫	-16241
磁盘	-16242
西伯	-16243
配送	-16244
▁幼儿	-16245
▁提高	-16246
境内的	-16247
最佳的	-16248
走出去	-16249
有效的方法	-16250
中枢神经系统	-16251
春秋战国时期	-16252
事例	-16253
出世	-16254
张飞	-16255
排气	-16256
▁临床	-16257
不变的	-16258
乳头状	-16259
动力学	-16260
我相信	-16261
第三代	-16262
恶性循环	-16263
的问题是	-16264
改革开放以来	-16265
▁平	-16266
切开	-16267
召集	-16268
大禹	-16269
就从	-16270
布斯	-16271
建的	-16272
纽带	-16273
网的	-16274
自已	-16275
铅笔	-16276
▁go	-16277
不规律	-16278
努力的	-16279
变得更	-16280
各部门	-16281
有密切	-16282
浓度的	-16283
熟能详	-16284
的心灵	-16285
等国家	-16286
真正意义上的	-16287
东海	-16288
中了	-16289
全是	-16290
反击	-16291
或将	-16292
抗炎	-16293
掌管	-16294
故称	-16295
新风	-16296
果园	-16297
烧伤	-16298
耳道	-16299
表层	-16300
吃一些	-16301
培养出	-16302
天文学	-16303
它不仅	-16304
尿毒症	-16305
是所有	-16306
的创新	-16307
的差异	-16308
的成长	-16309
短暂的	-16310
生殖器疱疹	-16311
▁方	-16312
七大	-16313
中兴	-16314
凡事	-16315
勘探	-16316
听讲	-16317
天线	-16318
就想	-16319
愿景	-16320
改称	-16321
款项	-16322
气功	-16323
气压	-16324
求助	-16325
精益	-16326
起跑	-16327
轴线	-16328
过着	-16329
鲁国	-16330
古埃及	-16331
名学生	-16332
在各种	-16333
是教师	-16334
等技术	-16335
一直没有	-16336
不留	-16337
个税	-16338
也更	-16339
公用	-16340
冰雪	-16341
右边	-16342
壁上	-16343
失明	-16344
山中	-16345
左边	-16346
已成	-16347
整顿	-16348
法门	-16349
滴水	-16350
热潮	-16351
繁琐	-16352
终究	-16353
车站	-16354
过往	-16355
还真	-16356
信息和	-16357
最喜欢	-16358
的一座	-16359
这不仅	-16360
原文地址	-16361
股票市场	-16362
致癌物质	-16363
造成伤害	-16364
部分患者	-16365
不休	-16366
人中	-16367
和解	-16368
张某	-16369
当选	-16370
总和	-16371
纲领	-16372
脱颖	-16373
麻省	-16374
医学会	-16375
涵盖了	-16376
的季节	-16377
的案件	-16378
秦国的	-16379
许许多	-16380
辛弃疾	-16381
几个方面	-16382
最伟大的	-16383
今天小编就	-16384
vc	-16385
▁佛	-16386
上火	-16387
摆在	-16388
更替	-16389
本着	-16390
油菜	-16391
登山	-16392
缓存	-16393
账款	-16394
▁wh	-16395
可采用	-16396
告诉他	-16397
还记得	-16398
世界遗产	-16399
中国教育	-16400
我国古代	-16401
社会主义核心价值观	-16402
兴衰	-16403
剂等	-16404
劳工	-16405
华侨	-16406
又以	-16407
反向	-16408
学过	-16409
小人	-16410
巴马	-16411
并使	-16412
生出	-16413
鲜花	-16414
十三年	-16415
安装在	-16416
文化与	-16417
款规定	-16418
汉高祖	-16419
社会的发展	-16420
沿线	-16421
腹水	-16422
角质	-16423
阴囊	-16424
▁by	-16425
▁生物	-16426
京津冀	-16427
发展与	-16428
和保护	-16429
地位的	-16430
感染性	-16431
的个人	-16432
能促进	-16433
转换为	-16434
实践证明	-16435
耳熟能详	-16436
这样的情况	-16437
万一	-16438
之交	-16439
促销	-16440
军中	-16441
冲泡	-16442
力气	-16443
匆匆	-16444
句丽	-16445
唐氏	-16446
巡视	-16447
悄然	-16448
行事	-16449
上进行	-16450
主办的	-16451
十分钟	-16452
培训班	-16453
应立即	-16454
的人身	-16455
的水分	-16456
自觉地	-16457
至今仍	-16458
讲的是	-16459
面上的	-16460
为中心的	-16461
仔细观察	-16462
的时间和	-16463
而形成的	-16464
输卵管堵塞	-16465
仅在	-16466
刊物	-16467
志向	-16468
推送	-16469
日语	-16470
概论	-16471
淮河	-16472
逆反	-16473
黄素	-16474
▁原因	-16475
▁各位	-16476
保健品	-16477
把这个	-16478
不容忽视	-16479
rl	-16480
两代	-16481
乌龙	-16482
事宜	-16483
日志	-16484
明治	-16485
是因	-16486
法令	-16487
要去	-16488
运载	-16489
逼迫	-16490
附睾	-16491
颇具	-16492
叙利亚	-16493
排行榜	-16494
晒太阳	-16495
权利人	-16496
都希望	-16497
黄色的	-16498
。...	-16499
实际问题	-16500
英语教学	-16501
且有	-16502
也给	-16503
年里	-16504
我将	-16505
携手	-16506
最优	-16507
皆有	-16508
粗粮	-16509
车内	-16510
▁饮食	-16511
商品的	-16512
如何进行	-16513
进一步提高	-16514
sd	-16515
匈牙	-16516
华山	-16517
城池	-16518
房地	-16519
歌词	-16520
眼花	-16521
诞辰	-16522
转运	-16523
不同意	-16524
发表于	-16525
极强的	-16526
概念的	-16527
的优点	-16528
国家机关	-16529
管理条例	-16530
可持续发展的	-16531
▁选	-16532
一顿	-16533
交配	-16534
他被	-16535
和有	-16536
四海	-16537
废旧	-16538
抱负	-16539
绝望	-16540
自愈	-16541
华尔街	-16542
无限的	-16543
的共同	-16544
网络游戏	-16545
食品添加剂	-16546
是一种常见的	-16547
丰满	-16548
交织	-16549
以身	-16550
保鲜	-16551
信徒	-16552
广的	-16553
放任	-16554
是新	-16555
未见	-16556
条文	-16557
疑似	-16558
那天	-16559
中获得	-16560
以及在	-16561
处三年	-16562
执行力	-16563
比利时	-16564
现金流	-16565
答案是	-16566
齐白石	-16567
macd	-16568
危及生命	-16569
因果关系	-16570
就会造成	-16571
户外活动	-16572
乳牙	-16573
偏偏	-16574
再说	-16575
写意	-16576
大到	-16577
日电	-16578
测序	-16579
燕国	-16580
眼神	-16581
红灯	-16582
船只	-16583
语气	-16584
野战	-16585
▁。"	-16586
也有所	-16587
几千年	-16588
分辨率	-16589
拥有一	-16590
本专业	-16591
过滤器	-16592
采访了	-16593
也要注意	-16594
他的父亲	-16595
▁我们知道	-16596
官的	-16597
淤积	-16598
王府	-16599
田野	-16600
省的	-16601
长了	-16602
风力	-16603
ick	-16604
主要指	-16605
倍以上	-16606
创业者	-16607
在不断	-16608
方式是	-16609
标准和	-16610
每天都	-16611
看一看	-16612
要不要	-16613
工业大学	-16614
科研人员	-16615
世上	-16616
会更	-16617
内痔	-16618
写生	-16619
列传	-16620
天真	-16621
妥协	-16622
小国	-16623
应变	-16624
建都	-16625
念珠	-16626
我所	-16627
沙特	-16628
法是	-16629
澄清	-16630
酱油	-16631
铃薯	-16632
dha	-16633
以减少	-16634
实实在	-16635
当下的	-16636
所有制	-16637
的生物	-16638
管理中	-16639
脑细胞	-16640
这节课	-16641
不可否认	-16642
手术切除	-16643
正确认识	-16644
伊始	-16645
借条	-16646
品位	-16647
在小	-16648
官窑	-16649
张学	-16650
才算	-16651
拓跋	-16652
琵琶	-16653
积木	-16654
部份	-16655
中科院	-16656
也只能	-16657
型人才	-16658
多发性	-16659
多数人	-16660
放弃了	-16661
月下旬	-16662
的热点	-16663
在此期间	-16664
血压升高	-16665
cript	-16666
hd	-16667
之手	-16668
你说	-16669
兔子	-16670
出名	-16671
大树	-16672
定额	-16673
木星	-16674
李克	-16675
格斯	-16676
疏导	-16677
罪魁	-16678
肩负	-16679
越王	-16680
驾车	-16681
▁哪些	-16682
▁有关	-16683
圣诞节	-16684
是实现	-16685
的临床	-16686
陶渊明	-16687
帕金森病	-16688
这种说法	-16689
之变	-16690
仁义	-16691
因材	-16692
年老	-16693
度高	-16694
得起	-16695
猴子	-16696
理所	-16697
靠谱	-16698
▁古人	-16699
了一位	-16700
作物的	-16701
强直性	-16702
等功能	-16703
苏联的	-16704
该公司	-16705
学士学位	-16706
冠军	-16707
助手	-16708
多巴	-16709
市级	-16710
炎帝	-16711
纸质	-16712
美味	-16713
医学界	-16714
性学习	-16715
适用的	-16716
中的重要	-16717
任何一种	-16718
再来	-16719
宣讲	-16720
惩戒	-16721
所言	-16722
水管	-16723
注销	-16724
版画	-16725
甜味	-16726
统领	-16727
致富	-16728
观光	-16729
这件	-16730
透彻	-16731
难受	-16732
▁",	-16733
▁去年	-16734
▁早期	-16735
合理性	-16736
大会上	-16737
是儿童	-16738
是针对	-16739
视神经	-16740
高蛋白	-16741
平均工资	-16742
很长时间	-16743
心理压力	-16744
慈禧太后	-16745
提起诉讼	-16746
的第一步	-16747
重中之重	-16748
不同类型的	-16749
博士生导师	-16750
广泛应用于	-16751
一眼	-16752
出错	-16753
地和	-16754
外痔	-16755
意向	-16756
淘宝	-16757
特异	-16758
立志	-16759
立马	-16760
象棋	-16761
陈胜	-16762
三国志	-16763
但目前	-16764
子宫内	-16765
开发出	-16766
教育厅	-16767
核武器	-16768
这四个	-16769
高性能	-16770
其实不然	-16771
如果不是	-16772
这项研究	-16773
国家税务总局	-16774
内需	-16775
同房	-16776
朴素	-16777
樱花	-16778
正视	-16779
民的	-16780
洪秀	-16781
皇子	-16782
隶属	-16783
下降了	-16784
产生于	-16785
实用性	-16786
为主题的	-16787
还是一个	-16788
联合国教科文组织	-16789
北海	-16790
古国	-16791
城县	-16792
牙膏	-16793
猕猴	-16794
虚实	-16795
让她	-16796
重伤	-16797
链条	-16798
不小的	-16799
在选择	-16800
工程院	-16801
的信号	-16802
的典型	-16803
社会化	-16804
▁无论是	-16805
孩子学习	-16806
是一个非常	-16807
直接影响到	-16808
一岁	-16809
基质	-16810
染料	-16811
瑰宝	-16812
荒漠	-16813
赡养	-16814
逆向	-16815
逐一	-16816
霍金	-16817
了出来	-16818
六年级	-16819
和能力	-16820
常伴有	-16821
改名为	-16822
每分钟	-16823
结肠癌	-16824
而中国	-16825
普遍存在	-16826
那么我们	-16827
不完	-16828
共生	-16829
周的	-16830
和睦	-16831
品尝	-16832
对冲	-16833
校外	-16834
炒作	-16835
知情	-16836
石榴	-16837
读取	-16838
黄酮	-16839
中世纪	-16840
为他们	-16841
刘伯温	-16842
在西方	-16843
本身就	-16844
来形容	-16845
满意的	-16846
国家重点	-16847
实践能力	-16848
dm	-16849
不韦	-16850
先把	-16851
单于	-16852
成名	-16853
治水	-16854
生平	-16855
的马	-16856
经商	-16857
缅怀	-16858
襄阳	-16859
西施	-16860
释义	-16861
▁笔者	-16862
剖宫产	-16863
开发区	-16864
所需要	-16865
矛盾的	-16866
http	-16867
google	-16868
光合	-16869
源源	-16870
生猪	-16871
费的	-16872
逃跑	-16873
api	-16874
与现代	-16875
个性的	-16876
大爆炸	-16877
就是用	-16878
想办法	-16879
要避免	-16880
如何预防	-16881
实施方案	-16882
智能制造	-16883
让孩子在	-16884
还要注意	-16885
这件事情	-16886
金融科技	-16887
进一步发展	-16888
保质	-16889
八字	-16890
图腾	-16891
大象	-16892
度数	-16893
心慌	-16894
波浪	-16895
火炮	-16896
白起	-16897
省会	-16898
礼拜	-16899
编排	-16900
解惑	-16901
译文	-16902
预案	-16903
▁生活	-16904
▁症状	-16905
▁这次	-16906
再进行	-16907
发电机	-16908
家公司	-16909
要达到	-16910
完全没有	-16911
生长激素	-16912
适应能力	-16913
硕士研究生	-16914
通常情况下	-16915
一贯	-16916
东风	-16917
买进	-16918
入园	-16919
募集	-16920
城里	-16921
家和	-16922
无名	-16923
草书	-16924
觉悟	-16925
计税	-16926
高档	-16927
产品和	-16928
可不是	-16929
应用到	-16930
粒细胞	-16931
一篇文章	-16932
hs	-16933
▁秋	-16934
上图	-16935
世袭	-16936
前身	-16937
动摇	-16938
唤起	-16939
宣扬	-16940
封锁	-16941
文革	-16942
条第	-16943
红木	-16944
载人	-16945
选手	-16946
陵园	-16947
雷电	-16948
▁核心	-16949
剖腹产	-16950
多喝水	-16951
子公司	-16952
所以我	-16953
是一次	-16954
本人的	-16955
这才是	-16956
小学数学	-16957
的孩子们	-16958
需要通过	-16959
促性腺激素	-16960
▁△	-16961
▁更	-16962
个个	-16963
乘法	-16964
五花	-16965
桂花	-16966
殿堂	-16967
流体	-16968
灌注	-16969
聚居	-16970
适中	-16971
制度和	-16972
回到了	-16973
性教育	-16974
究竟是	-16975
职业病	-16976
记录了	-16977
▁int	-16978
从而影响	-16979
表现出来	-16980
减税	-16981
南瓜	-16982
印尼	-16983
变小	-16984
小白	-16985
招募	-16986
港澳	-16987
穆斯	-16988
"。《	-16989
基因的	-16990
孩子是	-16991
月经期	-16992
深入的	-16993
系统地	-16994
要了解	-16995
发展方向	-16996
心理治疗	-16997
的小朋友	-16998
的主要因素	-16999
▁青	-17000
家教	-17001
并处	-17002
怀着	-17003
报废	-17004
捕获	-17005
操控	-17006
普鲁	-17007
百里	-17008
石雕	-17009
胃病	-17010
进修	-17011
追寻	-17012
配件	-17013
以避免	-17014
使自己	-17015
农业部	-17016
幸福的	-17017
才有了	-17018
lect	-17019
企业文化	-17020
因人而异	-17021
地球上的	-17022
阅读能力	-17023
三字	-17024
不失	-17025
健脾	-17026
外墙	-17027
孢子	-17028
抉择	-17029
智者	-17030
有好	-17031
篡改	-17032
苏军	-17033
衣食	-17034
风流	-17035
高僧	-17036
黄豆	-17037
▁rn	-17038
依赖性	-17039
必要性	-17040
最近的	-17041
优秀传统文化	-17042
他将	-17043
传销	-17044
在下	-17045
寓言	-17046
帮你	-17047
怀念	-17048
早起	-17049
浓茶	-17050
聚会	-17051
▁法国	-17052
今后的	-17053
其中最	-17054
发表的	-17055
可直接	-17056
因此而	-17057
并将其	-17058
的游戏	-17059
的背后	-17060
解释说	-17061
责任心	-17062
这一次	-17063
阿根廷	-17064
不善	-17065
仲淹	-17066
大势	-17067
玛丽	-17068
行知	-17069
路边	-17070
阿姨	-17071
▁总之	-17072
▁考试	-17073
不等于	-17074
专家的	-17075
为目标	-17076
佛教的	-17077
在网络	-17078
就如同	-17079
斯坦福	-17080
可以发现	-17081
黄帝内经	-17082
是什么样的	-17083
不需	-17084
他曾	-17085
会用	-17086
侦察	-17087
古文	-17088
含金	-17089
在被	-17090
学年	-17091
尔多	-17092
展出	-17093
教化	-17094
绿叶	-17095
这句	-17096
iew	-17097
一个大	-17098
八路军	-17099
只剩下	-17100
司令员	-17101
坏习惯	-17102
就是从	-17103
新媒体	-17104
银河系	-17105
大自然的	-17106
房地产税	-17107
研究机构	-17108
进行处理	-17109
先用	-17110
安德	-17111
封信	-17112
就对	-17113
应届	-17114
廉洁	-17115
心室	-17116
比的	-17117
石化	-17118
▁小儿	-17119
举行了	-17120
你自己	-17121
侧重于	-17122
六个月	-17123
后期的	-17124
和网络	-17125
战略性	-17126
文言文	-17127
是很难	-17128
满足了	-17129
生存率	-17130
保护环境	-17131
免疫细胞	-17132
对于一些	-17133
企事业单位	-17134
▁脑	-17135
供热	-17136
国宝	-17137
多月	-17138
抽取	-17139
按揭	-17140
木兰	-17141
祝福	-17142
育龄	-17143
贪婪	-17144
丧失了	-17145
向我们	-17146
并根据	-17147
总结出	-17148
的味道	-17149
文化交流	-17150
精神疾病	-17151
三阳	-17152
中来	-17153
公分	-17154
商代	-17155
夏令	-17156
建房	-17157
开具	-17158
或因	-17159
秦岭	-17160
税负	-17161
类等	-17162
航运	-17163
谁能	-17164
驾驭	-17165
ile	-17166
win	-17167
▁一旦	-17168
今河南	-17169
增加值	-17170
的前身	-17171
的最低	-17172
统一了	-17173
被称作	-17174
认识的	-17175
大大降低	-17176
是否可以	-17177
▁书	-17178
▁给	-17179
优生	-17180
写着	-17181
发黄	-17182
向来	-17183
喂食	-17184
安门	-17185
官至	-17186
打架	-17187
提早	-17188
笔法	-17189
象牙	-17190
顺着	-17191
了多少	-17192
士大夫	-17193
处罚金	-17194
来表示	-17195
癌症的	-17196
的考生	-17197
称其为	-17198
为核心的	-17199
主要内容	-17200
体育运动	-17201
理论知识	-17202
积极主动	-17203
蓬勃发展	-17204
轨道交通	-17205
软件开发	-17206
都会出现	-17207
具有重要意义	-17208
信誉	-17209
出借	-17210
和亲	-17211
正直	-17212
点火	-17213
离心	-17214
立春	-17215
进出	-17216
酶的	-17217
固有的	-17218
在民间	-17219
它就是	-17220
就算是	-17221
是造成	-17222
的现状	-17223
遭到了	-17224
饮食中	-17225
具有一定	-17226
各行各业	-17227
是什么意思	-17228
fc	-17229
参保	-17230
向北	-17231
大汗	-17232
带血	-17233
求学	-17234
浑身	-17235
经贸	-17236
读到	-17237
防癌	-17238
阻燃	-17239
eth	-17240
ome	-17241
了我们	-17242
哪一种	-17243
快速的	-17244
我们能	-17245
的最后	-17246
的规律	-17247
管理与	-17248
领导力	-17249
发生改变	-17250
一国	-17251
不加	-17252
为先	-17253
他从	-17254
动乱	-17255
女王	-17256
显露	-17257
楼阁	-17258
牛皮	-17259
玄奘	-17260
瘟疫	-17261
等均	-17262
经脉	-17263
耐力	-17264
集聚	-17265
骨科	-17266
合法性	-17267
和艺术	-17268
洪秀全	-17269
的努力	-17270
的感受	-17271
的距离	-17272
胃黏膜	-17273
需求量	-17274
一个好的	-17275
城镇居民	-17276
依恋	-17277
打的	-17278
沐浴	-17279
独创	-17280
甚少	-17281
石材	-17282
肝肾	-17283
药效	-17284
轻视	-17285
连贯	-17286
追捧	-17287
▁中央	-17288
可以有	-17289
打下了	-17290
热水器	-17291
的美好	-17292
较低的	-17293
长河中	-17294
因为没有	-17295
藏传佛教	-17296
适用法律	-17297
事事	-17298
多酚	-17299
当属	-17300
拼命	-17301
纠缠	-17302
胡适	-17303
追问	-17304
间质	-17305
靠着	-17306
不健康	-17307
外国语	-17308
是否会	-17309
比较少	-17310
精彩的	-17311
范仲淹	-17312
光伏发电	-17313
唯物主义	-17314
应试教育	-17315
证券市场	-17316
双脚	-17317
各族	-17318
它有	-17319
筋膜	-17320
胆管	-17321
范式	-17322
这颗	-17323
金价	-17324
ank	-17325
tcp	-17326
为实现	-17327
作曲家	-17328
做作业	-17329
关键字	-17330
换言之	-17331
的一门	-17332
的传说	-17333
的妈妈	-17334
美国和	-17335
表现得	-17336
卵巢早衰	-17337
可以采用	-17338
增长速度	-17339
外汇储备	-17340
如果不能	-17341
新型冠状病毒	-17342
▁布	-17343
之高	-17344
以东	-17345
净值	-17346
带兵	-17347
当我	-17348
投奔	-17349
潜水	-17350
特级	-17351
造诣	-17352
阐明	-17353
高脂	-17354
▁上述	-17355
▁工业	-17356
二十五	-17357
必须的	-17358
的一场	-17359
我们经常	-17360
竞争优势	-17361
▁步骤方法	-17362
不与	-17363
中庸	-17364
人权	-17365
价位	-17366
刺痛	-17367
前辈	-17368
就如	-17369
抓紧	-17370
指点	-17371
有功	-17372
橡皮	-17373
这四	-17374
造船	-17375
▁汽车	-17376
上来看	-17377
不多的	-17378
的高等	-17379
经营的	-17380
获得者	-17381
预示着	-17382
体系建设	-17383
哥伦比亚	-17384
发展过程中	-17385
不均	-17386
中止	-17387
十条	-17388
契合	-17389
寥寥	-17390
年为	-17391
弱视	-17392
晚餐	-17393
气短	-17394
绵延	-17395
部族	-17396
一时间	-17397
吕不韦	-17398
和创新	-17399
大大小	-17400
宇宙中	-17401
对照组	-17402
隶属于	-17403
就是这个	-17404
所形成的	-17405
研究对象	-17406
移动通信	-17407
ui	-17408
不耐	-17409
之用	-17410
战机	-17411
生姜	-17412
虫病	-17413
静静	-17414
不仅在	-17415
十二月	-17416
在人类	-17417
大小便	-17418
太多了	-17419
妇产科	-17420
岁开始	-17421
相当的	-17422
看作是	-17423
联系的	-17424
▁孩子的	-17425
不断扩大	-17426
博大精深	-17427
封建王朝	-17428
现在已经	-17429
现实主义	-17430
美国政府	-17431
自然保护区	-17432
▁神	-17433
剂和	-17434
天堂	-17435
奈何	-17436
收紧	-17437
无缝	-17438
木板	-17439
满满	-17440
瓦解	-17441
疏忽	-17442
矿业	-17443
科的	-17444
红的	-17445
远近	-17446
长官	-17447
防守	-17448
▁电子	-17449
七十二	-17450
做不到	-17451
发明的	-17452
多尔衮	-17453
家长在	-17454
工艺品	-17455
限制了	-17456
roid	-17457
人与自然	-17458
告诉孩子	-17459
基本原则	-17460
多囊卵巢	-17461
胶原蛋白	-17462
有限责任公司	-17463
为数	-17464
冶金	-17465
单车	-17466
却有	-17467
参差	-17468
喷雾	-17469
坐落	-17470
时分	-17471
沮丧	-17472
燕王	-17473
狼疮	-17474
考场	-17475
而论	-17476
肥皂	-17477
芝加	-17478
计的	-17479
高空	-17480
也有着	-17481
喜欢吃	-17482
小时后	-17483
工作时	-17484
然后用	-17485
现如今	-17486
的权力	-17487
的次数	-17488
等人的	-17489
等进行	-17490
类食物	-17491
需要对	-17492
严重后果	-17493
清洁能源	-17494
提供了一个	-17495
一事	-17496
切勿	-17497
国库	-17498
在海	-17499
基站	-17500
底的	-17501
明初	-17502
甲减	-17503
若有	-17504
请问	-17505
人性的	-17506
双胞胎	-17507
是人的	-17508
运动时	-17509
遗传性	-17510
问题时	-17511
▁有人说	-17512
与时俱进	-17513
可以实现	-17514
城市规划	-17515
成为一名	-17516
组织结构	-17517
发展起来的	-17518
三元	-17519
侍郎	-17520
储藏	-17521
卧室	-17522
商量	-17523
坚信	-17524
她说	-17525
学得	-17526
并入	-17527
当场	-17528
朗诵	-17529
沥青	-17530
留存	-17531
的抗	-17532
缘由	-17533
考入	-17534
联考	-17535
豪华	-17536
铭记	-17537
seo	-17538
▁应用	-17539
与国际	-17540
付出了	-17541
在任何	-17542
怎么说	-17543
我个人	-17544
自己所	-17545
芝加哥	-17546
认真的	-17547
运用到	-17548
链球菌	-17549
人民日报	-17550
融资租赁	-17551
ae	-17552
为好	-17553
升至	-17554
宝库	-17555
思念	-17556
成正	-17557
更低	-17558
曹植	-17559
电量	-17560
的自	-17561
眼泪	-17562
跟上	-17563
进制	-17564
中得到	-17565
强迫症	-17566
新华社	-17567
显示了	-17568
激发了	-17569
积累了	-17570
篇小说	-17571
认可的	-17572
促进作用	-17573
相信大家	-17574
越来越少	-17575
▁comm	-17576
一审	-17577
前三	-17578
地基	-17579
它以	-17580
故里	-17581
斜视	-17582
诸子	-17583
饭店	-17584
饱受	-17585
▁ip	-17586
▁建立	-17587
▁引起	-17588
的主导	-17589
蔬菜和	-17590
▁per	-17591
无产阶级	-17592
身体状况	-17593
的重要途径	-17594
共性	-17595
园艺	-17596
坚韧	-17597
岁前	-17598
崇高	-17599
差额	-17600
没法	-17601
相辅	-17602
纣王	-17603
织物	-17604
荣耀	-17605
会加重	-17606
副会长	-17607
更加的	-17608
然后将	-17609
的思维	-17610
劳动者的	-17611
和发展的	-17612
行动计划	-17613
保持良好的	-17614
▁}	-17615
会比	-17616
克尔	-17617
地里	-17618
奔跑	-17619
我很	-17620
才行	-17621
早早	-17622
正文	-17623
不能用	-17624
也已经	-17625
以满足	-17626
和信息	-17627
承租人	-17628
水中的	-17629
深深地	-17630
的资料	-17631
让幼儿	-17632
农业农村	-17633
医疗服务	-17634
小编为大家	-17635
若干问题的解释	-17636
▁成	-17637
下颌	-17638
介子	-17639
单项	-17640
壮年	-17641
存续	-17642
定型	-17643
席卷	-17644
年金	-17645
很短	-17646
松动	-17647
沿袭	-17648
秦桧	-17649
西药	-17650
起飞	-17651
退位	-17652
隆重	-17653
馒头	-17654
▁自从	-17655
就是将	-17656
为了保证	-17657
如何处理	-17658
就很容易	-17659
研究方向	-17660
行业发展	-17661
输卵管炎	-17662
具有很强的	-17663
以示	-17664
刀具	-17665
得失	-17666
得意	-17667
承兑	-17668
温泉	-17669
背痛	-17670
融洽	-17671
首相	-17672
col	-17673
不完善	-17674
交易者	-17675
但不是	-17676
和理解	-17677
是研究	-17678
曾经的	-17679
示意图	-17680
不良习惯	-17681
▁郭	-17682
】,	-17683
下半	-17684
临终	-17685
传给	-17686
后进	-17687
回了	-17688
慷慨	-17689
液晶	-17690
襄王	-17691
韭菜	-17692
▁本期	-17693
喝咖啡	-17694
尼古丁	-17695
漂亮的	-17696
的建立	-17697
的运行	-17698
紧接着	-17699
跟不上	-17700
也不可能	-17701
尽量减少	-17702
有可能是	-17703
来自网络	-17704
法律关系	-17705
睡眠障碍	-17706
人民币汇率	-17707
万千	-17708
丛林	-17709
全称	-17710
其父	-17711
前夕	-17712
单侧	-17713
多地	-17714
审题	-17715
愈发	-17716
春夏	-17717
暴食	-17718
洋务	-17719
物力	-17720
粗暴	-17721
股的	-17722
脚趾	-17723
iss	-17724
▁投资	-17725
▁正常	-17726
化学品	-17727
多余的	-17728
严重危害	-17729
供血不足	-17730
编程语言	-17731
英语学习	-17732
还会导致	-17733
▁也就是说	-17734
的数据显示	-17735
▁玉	-17736
一动	-17737
修道	-17738
倒闭	-17739
孕酮	-17740
或被	-17741
批量	-17742
燃放	-17743
荷花	-17744
贩卖	-17745
▁在此	-17746
优良的	-17747
包含着	-17748
心理上	-17749
才发现	-17750
新常态	-17751
联想到	-17752
议论文	-17753
财产的	-17754
教学工作	-17755
根本原因	-17756
积极作用	-17757
在这个时候	-17758
我们的身体	-17759
一丝	-17760
为己	-17761
二千	-17762
传记	-17763
公文	-17764
内皮	-17765
军委	-17766
出院	-17767
即以	-17768
山林	-17769
德尔	-17770
抽出	-17771
桌面	-17772
次要	-17773
每到	-17774
生源	-17775
经文	-17776
调配	-17777
运维	-17778
php	-17779
www	-17780
一起去	-17781
但因为	-17782
摄像头	-17783
竞争中	-17784
第二百	-17785
而成为	-17786
肾小球	-17787
▁这就是	-17788
人际交往	-17789
罪魁祸首	-17790
▁想	-17791
则徐	-17792
助推	-17793
定都	-17794
展厅	-17795
拒不	-17796
撰文	-17797
波段	-17798
洗衣	-17799
深造	-17800
硬币	-17801
空心	-17802
纬度	-17803
纹理	-17804
试试	-17805
越低	-17806
▁发展	-17807
会选择	-17808
和安全	-17809
在人体	-17810
多大的	-17811
的智慧	-17812
的高校	-17813
直升机	-17814
积极地	-17815
蛋白尿	-17816
设计了	-17817
费用的	-17818
陷入了	-17819
非常多	-17820
齐桓公	-17821
严格按照	-17822
健康问题	-17823
城市建设	-17824
如果一个	-17825
才有可能	-17826
悠久的历史	-17827
甲状腺激素	-17828
产期	-17829
何在	-17830
就近	-17831
拉萨	-17832
收敛	-17833
无异	-17834
登高	-17835
秀才	-17836
荣获	-17837
要好	-17838
首创	-17839
▁对此	-17840
匈牙利	-17841
喜爱的	-17842
操作性	-17843
的面积	-17844
管理员	-17845
还含有	-17846
还能够	-17847
职业生涯	-17848
蛋白质的	-17849
教学过程中	-17850
▁低	-17851
一中	-17852
丰厚	-17853
促成	-17854
先将	-17855
周转	-17856
好书	-17857
好动	-17858
屈光	-17859
工夫	-17860
我院	-17861
教法	-17862
水上	-17863
玩笑	-17864
老婆	-17865
肌腱	-17866
透析	-17867
预约	-17868
▁me	-17869
与美国	-17870
但现在	-17871
期限内	-17872
清晰地	-17873
的几个	-17874
穆斯林	-17875
表现了	-17876
谈不上	-17877
高水平	-17878
从而引起	-17879
多方面的	-17880
宣传教育	-17881
死亡人数	-17882
添加辅食	-17883
甚至可以	-17884
积极治疗	-17885
过敏反应	-17886
习题	-17887
加分	-17888
大业	-17889
管腔	-17890
纷纭	-17891
缓刑	-17892
节水	-17893
走近	-17894
▁任何	-17895
▁孕妇	-17896
以确保	-17897
任命为	-17898
可怕的	-17899
合同中	-17900
和历史	-17901
就很难	-17902
新产品	-17903
是关于	-17904
轻微的	-17905
公共利益	-17906
学者认为	-17907
针对性地	-17908
不朽	-17909
严寒	-17910
亨利	-17911
把手	-17912
有条	-17913
未曾	-17914
极致	-17915
模样	-17916
止咳	-17917
清照	-17918
留有	-17919
白了	-17920
益州	-17921
眼睑	-17922
▁至于	-17923
理论与	-17924
的自由	-17925
▁lin	-17926
世纪中叶	-17927
企业内部	-17928
虽然没有	-17929
交接	-17930
健壮	-17931
典礼	-17932
况且	-17933
几代	-17934
发散	-17935
呼应	-17936
奇妙	-17937
拖拉	-17938
插座	-17939
撤退	-17940
攻读	-17941
每亩	-17942
生俱	-17943
立下	-17944
至高	-17945
铜币	-17946
雨后	-17947
颇多	-17948
▁医生	-17949
》,《	-17950
支持下	-17951
的看法	-17952
第一条	-17953
观点认为	-17954
专职	-17955
中书	-17956
位数	-17957
反转	-17958
奖项	-17959
安县	-17960
眼界	-17961
荷载	-17962
试剂	-17963
▁重点	-17964
不能再	-17965
与世界	-17966
任务的	-17967
会成为	-17968
器质性	-17969
很高兴	-17970
所大学	-17971
清楚的	-17972
症状是	-17973
的话语	-17974
▁生活中	-17975
东汉末年	-17976
只是一种	-17977
在此之前	-17978
部分地区	-17979
作画	-17980
在西	-17981
学府	-17982
少先	-17983
常被	-17984
直销	-17985
▁环境	-17986
也很难	-17987
就像是	-17988
工业和	-17989
开放式	-17990
管理人	-17991
面积的	-17992
合同纠纷	-17993
城乡居民	-17994
进行比较	-17995
解决问题的能力	-17996
▁超	-17997
下达	-17998
为上	-17999
之举	-18000
写实	-18001
契税	-18002
妄想	-18003
子胥	-18004
岛上	-18005
工件	-18006
畅销	-18007
秉承	-18008
缓和	-18009
鞋子	-18010
餐具	-18011
▁id	-18012
会因为	-18013
先生在	-18014
商业化	-18015
开发者	-18016
的规模	-18017
的这个	-18018
转型的	-18019
医疗器械	-18020
学习英语	-18021
适用范围	-18022
随着时间的推移	-18023
临摹	-18024
出产	-18025
口中	-18026
拥护	-18027
烘干	-18028
秘诀	-18029
繁忙	-18030
虔诚	-18031
选出	-18032
重塑	-18033
除夕	-18034
高管	-18035
▁具有	-18036
又可以	-18037
和时间	-18038
学者的	-18039
就比较	-18040
的感染	-18041
人们对于	-18042
因材施教	-18043
心理障碍	-18044
肾上腺素	-18045
激发学生的	-18046
一副	-18047
主的	-18048
住宿	-18049
备用	-18050
多德	-18051
当其	-18052
新旧	-18053
汗国	-18054
统考	-18055
蜡烛	-18056
译为	-18057
页岩	-18058
食堂	-18059
天主教	-18060
就好像	-18061
巴菲特	-18062
或其它	-18063
是整个	-18064
有计划	-18065
的第二	-18066
肌肉的	-18067
辽宁省	-18068
集成电路	-18069
▁听	-18070
▁简	-18071
前去	-18072
学区	-18073
学名	-18074
定罪	-18075
挣扎	-18076
民警	-18077
的去	-18078
身亡	-18079
防伪	-18080
▁er	-18081
公开课	-18082
和价值	-18083
你所	-18084
反省	-18085
宝玉	-18086
少许	-18087
深得	-18088
瑕疵	-18089
英美	-18090
课间	-18091
黄曲	-18092
写下了	-18093
十几年	-18094
向大家	-18095
如何让	-18096
描述了	-18097
数十年	-18098
的程序	-18099
股票的	-18100
▁让我们	-18101
亚历山大	-18102
口腔溃疡	-18103
工作会议	-18104
市场份额	-18105
广播电视	-18106
无论如何	-18107
社会问题	-18108
孩子的学习	-18109
ty	-18110
之治	-18111
倒是	-18112
参赛	-18113
目睹	-18114
造福	-18115
其实在	-18116
通用的	-18117
采取的	-18118
量减少	-18119
高脂肪	-18120
▁app	-18121
宣传活动	-18122
心理因素	-18123
新闻发布	-18124
精神紧张	-18125
造成影响	-18126
非洲猪瘟	-18127
对学生进行	-18128
很大的影响	-18129
▁出	-18130
举手	-18131
亲友	-18132
发红	-18133
咽炎	-18134
外力	-18135
意在	-18136
攻占	-18137
昭君	-18138
此刻	-18139
氢气	-18140
的王	-18141
穿戴	-18142
能将	-18143
足部	-18144
钱财	-18145
阅卷	-18146
顺势	-18147
食指	-18148
arn	-18149
不明确	-18150
任务是	-18151
史之乱	-18152
同学的	-18153
命名的	-18154
权利和	-18155
电磁波	-18156
第一天	-18157
要加强	-18158
需要做	-18159
发给	-18160
哈哈	-18161
届三	-18162
徽州	-18163
构想	-18164
红线	-18165
而过	-18166
音响	-18167
下降到	-18168
仅限于	-18169
则可以	-18170
开放性	-18171
总体上	-18172
更何况	-18173
来决定	-18174
的伤害	-18175
的大学	-18176
神经性	-18177
通知书	-18178
小朋友们	-18179
法律责任	-18180
结果发现	-18181
葡萄球菌	-18182
违法犯罪	-18183
是很重要的	-18184
pu	-18185
台北	-18186
名牌	-18187
形似	-18188
捷径	-18189
政党	-18190
横跨	-18191
比作	-18192
民心	-18193
洞穴	-18194
的深	-18195
绿地	-18196
要领	-18197
▁金融	-18198
发动了	-18199
在临床	-18200
孕早期	-18201
的皮肤	-18202
教育事业	-18203
本科专业	-18204
研究领域	-18205
内裤	-18206
大片	-18207
就曾	-18208
度假	-18209
泛指	-18210
穷人	-18211
绝非	-18212
考取	-18213
调养	-18214
ode	-18215
与其它	-18216
已超过	-18217
贵金属	-18218
过来的	-18219
▁第二个	-18220
中心主任	-18221
带状疱疹	-18222
症状表现	-18223
需要一个	-18224
ition	-18225
万的	-18226
为王	-18227
乐队	-18228
伸缩	-18229
军在	-18230
动产	-18231
化合	-18232
呼声	-18233
定植	-18234
尽了	-18235
林斯	-18236
甲烷	-18237
能用	-18238
进城	-18239
选址	-18240
雄性	-18241
但同时	-18242
唐朝的	-18243
城市群	-18244
眼中的	-18245
计算的	-18246
个体差异	-18247
和维生素	-18248
我们看到	-18249
才能真正	-18250
温馨提示	-18251
性功能障碍	-18252
不理	-18253
俗语	-18254
喷射	-18255
四维	-18256
挑食	-18257
淹没	-18258
黑人	-18259
▁自然	-18260
▁音乐	-18261
会觉得	-18262
南方的	-18263
对一些	-18264
控制了	-18265
论坛上	-18266
form	-18267
如果你的	-18268
工作经验	-18269
课外阅读	-18270
▁微	-18271
▁江	-18272
也比	-18273
切记	-18274
它为	-18275
往年	-18276
标明	-18277
此举	-18278
洗礼	-18279
特效	-18280
矩阵	-18281
研读	-18282
纳斯	-18283
而以	-18284
蒸馏	-18285
象形	-18286
不能吃	-18287
从中国	-18288
做准备	-18289
可作为	-18290
延伸到	-18291
等优点	-18292
等信息	-18293
绿色的	-18294
记载了	-18295
全身症状	-18296
所导致的	-18297
注册商标	-18298
留下来的	-18299
经济组织	-18300
脱颖而出	-18301
学生的学习兴趣	-18302
位移	-18303
保定	-18304
加尔	-18305
历任	-18306
所为	-18307
挂牌	-18308
无须	-18309
深知	-18310
滞留	-18311
相伴	-18312
签约	-18313
糯米	-18314
谈及	-18315
身后	-18316
难于	-18317
马的	-18318
▁什么	-18319
▁第六	-18320
为导向	-18321
尼西亚	-18322
开始在	-18323
是影响	-18324
自己和	-18325
转换成	-18326
。。。。	-18327
亚硝酸盐	-18328
八十年代	-18329
是孩子的	-18330
病的发生	-18331
主要是通过	-18332
是中国古代	-18333
的生活习惯	-18334
串联	-18335
产检	-18336
净水	-18337
功底	-18338
加载	-18339
历法	-18340
可口	-18341
山之	-18342
户户	-18343
欢喜	-18344
水晶	-18345
煮熟	-18346
率低	-18347
疲乏	-18348
而要	-18349
辗转	-18350
plc	-18351
可发生	-18352
和老师	-18353
高分子	-18354
前人	-18355
卫国	-18356
可从	-18357
和你	-18358
坎坷	-18359
女娲	-18360
形制	-18361
族群	-18362
消亡	-18363
状体	-18364
璀璨	-18365
维也	-18366
跳舞	-18367
pos	-18368
▁位于	-18369
了一座	-18370
师生的	-18371
损害的	-18372
方法来	-18373
的名义	-18374
结核病	-18375
说一下	-18376
侵权行为	-18377
大大提高	-18378
奥林匹克	-18379
建议大家	-18380
理论基础	-18381
▁行	-18382
不许	-18383
之功	-18384
二胎	-18385
但当	-18386
出使	-18387
则应	-18388
同济	-18389
地暖	-18390
店铺	-18391
栽种	-18392
残暴	-18393
滚动	-18394
翻开	-18395
蓝光	-18396
要与	-18397
都督	-18398
▁mg	-18399
一共有	-18400
也十分	-18401
女人的	-18402
忍不住	-18403
是指以	-18404
甘肃省	-18405
用一个	-18406
疼痛感	-18407
磁共振	-18408
肾结石	-18409
一旦发现	-18410
出了问题	-18411
建设项目	-18412
的时间里	-18413
研究团队	-18414
经济结构	-18415
长期使用	-18416
▁教学目标	-18417
坚实的基础	-18418
书上	-18419
偷偷	-18420
军用	-18421
包块	-18422
受力	-18423
在后	-18424
天数	-18425
奶瓶	-18426
巴尔	-18427
成祖	-18428
是天	-18429
油烟	-18430
社群	-18431
腮腺	-18432
般若	-18433
降临	-18434
院落	-18435
一件事	-18436
之一是	-18437
亚马逊	-18438
到最后	-18439
十一年	-18440
可能对	-18441
腹腔镜	-18442
跟孩子	-18443
进行过	-18444
不断提升	-18445
最古老的	-18446
▁大家都知道	-18447
他以	-18448
冷藏	-18449
减负	-18450
发情	-18451
变相	-18452
吞并	-18453
时长	-18454
死者	-18455
燃煤	-18456
秀丽	-18457
胆碱	-18458
茉莉	-18459
茫茫	-18460
car	-18461
▁一位	-18462
▁引言	-18463
乌克兰	-18464
女孩子	-18465
异常的	-18466
挥发性	-18467
教研室	-18468
有直接	-18469
甘油三	-18470
等行业	-18471
▁这样的	-18472
健康管理	-18473
可以降低	-18474
告诉大家	-18475
对症治疗	-18476
就出现了	-18477
心血管病	-18478
恶心呕吐	-18479
方向发展	-18480
时至今日	-18481
有的甚至	-18482
欢迎阅读	-18483
目的在于	-18484
专业委员会	-18485
主要分布在	-18486
糖皮质激素	-18487
两极	-18488
之长	-18489
亮的	-18490
全军	-18491
公社	-18492
发力	-18493
善恶	-18494
客厅	-18495
居室	-18496
效仿	-18497
认清	-18498
高超	-18499
合作的	-18500
天津市	-18501
平台上	-18502
现行的	-18503
结果的	-18504
自然会	-18505
毋庸置疑	-18506
监管部门	-18507
研究所所长	-18508
:【	-18509
安居	-18510
小结	-18511
打交	-18512
抵触	-18513
期和	-18514
河的	-18515
琢磨	-18516
看清	-18517
稀薄	-18518
重任	-18519
▁采用	-18520
与人类	-18521
各式各	-18522
坐落在	-18523
市场和	-18524
情绪的	-18525
自主性	-18526
深入人心	-18527
西伯利亚	-18528
.(	-18529
上门	-18530
反流	-18531
各路	-18532
呼气	-18533
夏朝	-18534
或称	-18535
来回	-18536
沃尔	-18537
牵拉	-18538
罪行	-18539
这道	-18540
重镇	-18541
为依据	-18542
和要求	-18543
在那个	-18544
好发于	-18545
如何去	-18546
将继续	-18547
少不了	-18548
岁以前	-18549
我国在	-18550
是否是	-18551
材料和	-18552
每小时	-18553
渗透到	-18554
焦虑症	-18555
节假日	-18556
起作用	-18557
颁布的	-18558
▁高血压	-18559
中国大陆	-18560
也就是我们	-18561
初心	-18562
可由	-18563
吸纳	-18564
填空	-18565
多食	-18566
建制	-18567
彩虹	-18568
能从	-18569
把握好	-18570
新课标	-18571
的例子	-18572
要选择	-18573
伸出	-18574
或无	-18575
扫墓	-18576
旧的	-18577
树干	-18578
现任	-18579
盛唐	-18580
联结	-18581
辞职	-18582
遍及	-18583
马蹄	-18584
▁所有	-18585
上一个	-18586
不知所	-18587
我们是	-18588
效果好	-18589
求知欲	-18590
老师说	-18591
能看到	-18592
英特尔	-18593
这只是	-18594
马铃薯	-18595
原因就是	-18596
和谐社会	-18597
计算方法	-18598
深远的影响	-18599
休眠	-18600
光电	-18601
医用	-18602
多头	-18603
尚有	-18604
市盈	-18605
揭露	-18606
政绩	-18607
的词	-18608
艺人	-18609
范文	-18610
获悉	-18611
谁来	-18612
风采	-18613
饭前	-18614
%)。	-18615
voc	-18616
中西医	-18617
为主导	-18618
也容易	-18619
是一家	-18620
还必须	-18621
这一年	-18622
高中的	-18623
各个领域	-18624
大宗商品	-18625
有害气体	-18626
国务院关于	-18627
是最常见的	-18628
的基本原则	-18629
一起来了解一下	-18630
也使	-18631
仰卧	-18632
公的	-18633
内战	-18634
可致	-18635
唯独	-18636
外商	-18637
弹簧	-18638
枝叶	-18639
立项	-18640
维系	-18641
耶路	-18642
自私	-18643
试想	-18644
踏实	-18645
随手	-18646
cad	-18647
▁未来	-18648
▁正确	-18649
万年前	-18650
不至于	-18651
会根据	-18652
大革命	-18653
我自己	-18654
的早期	-18655
老人的	-18656
也有可能	-18657
化学成分	-18658
成为世界	-18659
假冒	-18660
庐山	-18661
我从	-18662
据悉	-18663
期盼	-18664
治好	-18665
知其	-18666
补肾	-18667
被打	-18668
课标	-18669
预售	-18670
高产	-18671
▁当今	-18672
了这一	-18673
文章中	-18674
只有这样	-18675
对于那些	-18676
新兴市场	-18677
有很好的	-18678
关注的焦点	-18679
▁回	-18680
一堂	-18681
一并	-18682
互为	-18683
保费	-18684
圣贤	-18685
数月	-18686
混杂	-18687
清香	-18688
谚语	-18689
个城市	-18690
十四年	-18691
提供给	-18692
用什么	-18693
资本的	-18694
无形资产	-18695
社会主义市场经济	-18696
▁打	-18697
伴奏	-18698
依存	-18699
军政	-18700
听懂	-18701
奶牛	-18702
布尔	-18703
往事	-18704
政事	-18705
有形	-18706
权属	-18707
核实	-18708
核电	-18709
混浊	-18710
珍稀	-18711
祖籍	-18712
站点	-18713
面子	-18714
▁大学	-18715
下丘脑	-18716
偏头痛	-18717
多少钱	-18718
是学校	-18719
木结构	-18720
民法典	-18721
苏格兰	-18722
互联网的	-18723
做好准备	-18724
教育技术	-18725
上报	-18726
先驱	-18727
基点	-18728
慈悲	-18729
扩充	-18730
换代	-18731
种群	-18732
答疑	-18733
而其	-18734
这和	-18735
随身	-18736
▁政府	-18737
与生活	-18738
二维码	-18739
会降低	-18740
在一次	-18741
大概是	-18742
安全带	-18743
并不多	-18744
时期内	-18745
相较于	-18746
运动中	-18747
▁在这个	-18748
严重威胁	-18749
平均水平	-18750
意想不到	-18751
竞争力的	-18752
精神障碍	-18753
诸葛亮的	-18754
采用的是	-18755
▁%	-18756
三家	-18757
人脸	-18758
元气	-18759
国籍	-18760
嫁接	-18761
字样	-18762
幕墙	-18763
暴饮	-18764
最难	-18765
楼房	-18766
答复	-18767
郡县	-18768
重型	-18769
高雅	-18770
gen	-18771
写作文	-18772
并称为	-18773
张学良	-18774
心电图	-18775
排放量	-18776
火车站	-18777
理事长	-18778
维也纳	-18779
高句丽	-18780
▁计算机	-18781
大脑发育	-18782
最简单的	-18783
课程设置	-18784
这些数据	-18785
▁以上就是	-18786
相当一部分	-18787
下列情形之一的	-18788
▁网	-18789
一格	-18790
一波	-18791
力强	-18792
大头	-18793
寒食	-18794
工龄	-18795
悲惨	-18796
照料	-18797
税制	-18798
装有	-18799
迫害	-18800
防灾	-18801
mri	-18802
▁可能	-18803
▁子宫	-18804
不良的	-18805
中后期	-18806
的一般	-18807
青年人	-18808
▁第一步	-18809
安全事故	-18810
现代农业	-18811
的环境下	-18812
▁!	-18813
名气	-18814
商贸	-18815
地对	-18816
安心	-18817
宗棠	-18818
我还	-18819
撒冷	-18820
经受	-18821
维埃	-18822
难民	-18823
中晚期	-18824
区别的	-18825
向学生	-18826
基本功	-18827
实质性	-18828
年之后	-18829
德意志	-18830
的作文	-18831
目前已	-18832
瞩目的	-18833
行为和	-18834
集体的	-18835
中小学校	-18836
从而提高	-18837
实践经验	-18838
血栓形成	-18839
第一次世界大战	-18840
▁表	-18841
一枚	-18842
下药	-18843
不衰	-18844
图的	-18845
地缘	-18846
多动	-18847
小叶	-18848
廉价	-18849
投靠	-18850
教义	-18851
杏仁	-18852
电离	-18853
筹备	-18854
长途	-18855
公安部	-18856
实质上	-18857
就行了	-18858
我知道	-18859
活动时	-18860
结膜炎	-18861
给予了	-18862
衣原体	-18863
被列为	-18864
一个重要	-18865
上个世纪	-18866
不断完善	-18867
创造性的	-18868
下面我们就	-18869
千金	-18870
和华	-18871
尾气	-18872
悬崖	-18873
才子	-18874
桌子	-18875
气虚	-18876
火爆	-18877
矮小	-18878
祈求	-18879
编纂	-18880
肺泡	-18881
语的	-18882
风的	-18883
高高	-18884
心动过	-18885
第一任	-18886
细胞内	-18887
经销商	-18888
观念的	-18889
▁据统计	-18890
专家建议	-18891
人体健康	-18892
大家可以	-18893
密不可分	-18894
对于一个	-18895
工作原理	-18896
一身	-18897
做饭	-18898
写照	-18899
惊奇	-18900
玛雅	-18901
神宗	-18902
论的	-18903
车身	-18904
通透	-18905
造林	-18906
▁一直	-18907
▁怎么	-18908
也必须	-18909
左宗棠	-18910
打败了	-18911
曹操的	-18912
相辅相	-18913
程序的	-18914
近视眼	-18915
专业技术	-18916
时间长了	-18917
食品药品	-18918
基础设施建设	-18919
南唐	-18920
宋元	-18921
密闭	-18922
布拉	-18923
承接	-18924
接头	-18925
无情	-18926
椎体	-18927
耶鲁	-18928
见效	-18929
过人	-18930
还与	-18931
在设计	-18932
年时间	-18933
患者有	-18934
是他们	-18935
畜牧业	-18936
肯定会	-18937
还不是	-18938
政协委员	-18939
突发事件	-18940
下层	-18941
保安	-18942
分隔	-18943
喷洒	-18944
孩童	-18945
开凿	-18946
归来	-18947
快门	-18948
景气	-18949
花序	-18950
ste	-18951
亚热带	-18952
初期的	-18953
卫生间	-18954
和生产	-18955
小提琴	-18956
或间接	-18957
因地制宜	-18958
迫切需要	-18959
ft	-18960
众说	-18961
可比	-18962
宣德	-18963
干货	-18964
年由	-18965
换取	-18966
查出	-18967
草地	-18968
赞叹	-18969
趁机	-18970
超前	-18971
龙的	-18972
ave	-18973
▁报告	-18974
不规范	-18975
人生观	-18976
发源地	-18977
在当地	-18978
成本低	-18979
教授的	-18980
集中于	-18981
关系密切	-18982
基本上是	-18983
相关规定	-18984
社会各界	-18985
降低成本	-18986
双方当事人	-18987
喇嘛	-18988
外乎	-18989
大王	-18990
就让	-18991
屋面	-18992
检修	-18993
油田	-18994
涌入	-18995
濒危	-18996
立德	-18997
精巧	-18998
育种	-18999
胃口	-19000
近乎	-19001
金星	-19002
降准	-19003
东西方	-19004
丰富了	-19005
二十一	-19006
和法律	-19007
还处于	-19008
加州大学	-19009
的安全性	-19010
六种	-19011
凝胶	-19012
外壳	-19013
好玩	-19014
完后	-19015
待人	-19016
消融	-19017
益气	-19018
直射	-19019
真心	-19020
着色	-19021
精锐	-19022
轻者	-19023
逃离	-19024
高昂	-19025
黄巢	-19026
▁材料	-19027
▁部分	-19028
在今天	-19029
开发了	-19030
怀孕后	-19031
我们有	-19032
来解释	-19033
物权法	-19034
飞行员	-19035
因为这个	-19036
腰椎间盘突出症	-19037
充盈	-19038
反响	-19039
咽部	-19040
夏侯	-19041
应由	-19042
往前	-19043
法宝	-19044
电位	-19045
筹集	-19046
越发	-19047
跌倒	-19048
都用	-19049
▁申请	-19050
一等奖	-19051
与普通	-19052
与自然	-19053
则认为	-19054
化脓性	-19055
压缩机	-19056
在法律	-19057
尿失禁	-19058
的不是	-19059
的资源	-19060
给人们	-19061
营养的	-19062
通过的	-19063
中的地位	-19064
各种各样	-19065
市场价格	-19066
无论是在	-19067
耶路撒冷	-19068
蔬菜水果	-19069
ni	-19070
其人	-19071
大局	-19072
就和	-19073
左传	-19074
提拔	-19075
改建	-19076
方圆	-19077
星座	-19078
滑动	-19079
牲畜	-19080
现将	-19081
眼病	-19082
精症	-19083
骚扰	-19084
▁也许	-19085
不公平	-19086
为了使	-19087
人认为	-19088
付出的	-19089
保护法	-19090
初中生	-19091
十七年	-19092
发展了	-19093
和科学	-19094
大一统	-19095
必然会	-19096
恢复了	-19097
比如在	-19098
禽流感	-19099
经常被	-19100
绝不是	-19101
输尿管	-19102
那么你	-19103
可以用来	-19104
▁热	-19105
两手	-19106
为民	-19107
县令	-19108
喉咙	-19109
喻户	-19110
增减	-19111
大字	-19112
山坡	-19113
扎根	-19114
流泪	-19115
维亚	-19116
遍地	-19117
▁pl	-19118
亲爱的	-19119
人们所	-19120
和政治	-19121
增加的	-19122
的色彩	-19123
致命的	-19124
西安市	-19125
要求和	-19126
这一个	-19127
不言而喻	-19128
专业人员	-19129
传说中的	-19130
基准利率	-19131
上周	-19132
四军	-19133
恶变	-19134
拜访	-19135
新城	-19136
未婚	-19137
火力	-19138
熊市	-19139
的茶	-19140
红枣	-19141
街上	-19142
赔款	-19143
闪烁	-19144
驻扎	-19145
▁与此	-19146
二十八	-19147
养殖户	-19148
喻户晓	-19149
州刺史	-19150
是第一	-19151
突破了	-19152
这可能	-19153
了解更多	-19154
如果发现	-19155
有很多的	-19156
艾滋病的	-19157
不信	-19158
人道	-19159
会战	-19160
兼备	-19161
化物	-19162
圆锥	-19163
多姿	-19164
大风	-19165
头昏	-19166
应税	-19167
球形	-19168
祈祷	-19169
祖师	-19170
遥感	-19171
酒的	-19172
▁ed	-19173
▁中华	-19174
展现了	-19175
总人口	-19176
来帮助	-19177
气体的	-19178
爆发了	-19179
留学的	-19180
的有关	-19181
的题目	-19182
年代中期	-19183
这一现象	-19184
vs	-19185
体字	-19186
体裁	-19187
修缮	-19188
傍晚	-19189
切削	-19190
塑像	-19191
家谱	-19192
更早	-19193
津津	-19194
烟台	-19195
皆为	-19196
真情	-19197
纯洁	-19198
耕种	-19199
胁迫	-19200
享受到	-19201
公开发	-19202
在其他	-19203
有价值	-19204
深刻地	-19205
的人在	-19206
额外的	-19207
兴趣爱好	-19208
成千上万	-19209
虚拟现实	-19210
▁人工智能	-19211
)《	-19212
不负	-19213
先有	-19214
入住	-19215
利福	-19216
城中	-19217
增至	-19218
小数	-19219
日晚	-19220
期满	-19221
比比	-19222
水生	-19223
河谷	-19224
立功	-19225
胆小	-19226
腰骶	-19227
转到	-19228
发作时	-19229
年龄在	-19230
很多人的	-19231
美国总统	-19232
一言	-19233
三世	-19234
之声	-19235
买到	-19236
合资	-19237
后半	-19238
折叠	-19239
换气	-19240
提纲	-19241
然大	-19242
祖母	-19243
神灵	-19244
结膜	-19245
能有	-19246
css	-19247
▁男性	-19248
养殖场	-19249
对整个	-19250
成就感	-19251
的课堂	-19252
工商管理	-19253
银行存款	-19254
即有	-19255
周后	-19256
在人	-19257
基调	-19258
多层	-19259
太行	-19260
彩超	-19261
念佛	-19262
才干	-19263
水池	-19264
落下	-19265
长此	-19266
问他	-19267
res	-19268
一直被	-19269
农村的	-19270
占全国	-19271
后来又	-19272
子女的	-19273
是一部	-19274
显示器	-19275
有益于	-19276
等部位	-19277
远高于	-19278
大学生的	-19279
最有效的	-19280
ebook	-19281
供大家参考	-19282
主宰	-19283
也算	-19284
代之	-19285
僧人	-19286
各科	-19287
多处	-19288
权证	-19289
特有	-19290
蒙特	-19291
补给	-19292
选定	-19293
镀锌	-19294
在水中	-19295
居住的	-19296
应该从	-19297
持有的	-19298
的服务	-19299
真实性	-19300
硬化的	-19301
蕴含着	-19302
走上了	-19303
透明度	-19304
遥远的	-19305
长大的	-19306
阿弥陀	-19307
伟大复兴	-19308
文化艺术	-19309
癌症患者	-19310
的一句话	-19311
成长过程中	-19312
▁风	-19313
下雨	-19314
亲和	-19315
前置	-19316
无愧	-19317
明晰	-19318
末梢	-19319
洞庭	-19320
软弱	-19321
边形	-19322
逃逸	-19323
铺垫	-19324
饮品	-19325
son	-19326
也一样	-19327
博士后	-19328
可视化	-19329
大大的	-19330
的判断	-19331
的品种	-19332
的理想	-19333
的途径	-19334
研究与	-19335
要坚持	-19336
规则的	-19337
是否需要	-19338
核心素养	-19339
组织形式	-19340
行政行为	-19341
之间的矛盾	-19342
太阳能电池	-19343
vm	-19344
主意	-19345
功耗	-19346
危急	-19347
嫉妒	-19348
宫女	-19349
常人	-19350
弯腰	-19351
很差	-19352
无聊	-19353
漂浮	-19354
白话	-19355
置身	-19356
肉质	-19357
茅台	-19358
见不	-19359
详情	-19360
远比	-19361
▁检查	-19362
你必须	-19363
文件夹	-19364
方式来	-19365
是不够	-19366
进步的	-19367
▁主持人	-19368
严格控制	-19369
农村集体	-19370
对于孩子	-19371
深入了解	-19372
dc	-19373
不屈	-19374
交代	-19375
又如	-19376
史实	-19377
在三	-19378
将他	-19379
心梗	-19380
灼热	-19381
甲醇	-19382
笑话	-19383
西门	-19384
都把	-19385
▁婴儿	-19386
在所有	-19387
饮食上	-19388
天人合一	-19389
正规医院	-19390
让自己的	-19391
非常重视	-19392
强直性脊柱	-19393
别名	-19394
剪刀	-19395
厌氧	-19396
告终	-19397
屡屡	-19398
敌军	-19399
有感	-19400
诺如	-19401
账号	-19402
配制	-19403
▁sp	-19404
企业对	-19405
引人注	-19406
活力的	-19407
演变成	-19408
结构化	-19409
项目中	-19410
之一就是	-19411
亿立方米	-19412
几千年的	-19413
发动机的	-19414
婚姻关系	-19415
社会生活	-19416
经常出现	-19417
这种做法	-19418
那么简单	-19419
受凉	-19420
天祥	-19421
峰会	-19422
成一	-19423
老实	-19424
考题	-19425
芙蓉	-19426
补习	-19427
该类	-19428
走入	-19429
适于	-19430
隐含	-19431
公司和	-19432
公有制	-19433
实力的	-19434
所做的	-19435
新材料	-19436
最根本	-19437
的事项	-19438
超出了	-19439
适宜的	-19440
安史之乱	-19441
开国皇帝	-19442
语文教师	-19443
逐渐形成	-19444
乘车	-19445
了然	-19446
五色	-19447
只得	-19448
吉利	-19449
情人	-19450
无用	-19451
次日	-19452
汇编	-19453
海量	-19454
赞成	-19455
进餐	-19456
操作的	-19457
的计划	-19458
被执行	-19459
轰炸机	-19460
重庆市	-19461
科技成果	-19462
这些因素	-19463
食物中毒	-19464
中子	-19465
品行	-19466
在哪	-19467
孔明	-19468
就应	-19469
通宝	-19470
陪同	-19471
在什么	-19472
是两个	-19473
比上年	-19474
汉献帝	-19475
深深的	-19476
的收入	-19477
的表面	-19478
的负担	-19479
这是个	-19480
遗传学	-19481
一直都是	-19482
体育活动	-19483
保护自己	-19484
各个环节	-19485
很可能是	-19486
很多女性	-19487
经济补偿	-19488
证券交易所	-19489
不来	-19490
不给	-19491
像素	-19492
去找	-19493
叮咬	-19494
名副	-19495
戈尔	-19496
散光	-19497
暴躁	-19498
滋补	-19499
濒临	-19500
考官	-19501
耐火	-19502
胸骨	-19503
花样	-19504
螺栓	-19505
▁as	-19506
介绍的	-19507
代名词	-19508
传说中	-19509
便开始	-19510
文件中	-19511
有意义	-19512
生产者	-19513
设置的	-19514
运动量	-19515
释放出	-19516
▁web	-19517
实实在在	-19518
所使用的	-19519
新冠病毒	-19520
社会实践	-19521
来了解一下	-19522
表现出来的	-19523
你有	-19524
克利	-19525
全美	-19526
券商	-19527
单片	-19528
同源	-19529
名曰	-19530
外星	-19531
封面	-19532
往上	-19533
村里	-19534
果糖	-19535
波澜	-19536
禅师	-19537
都由	-19538
铁道	-19539
香料	-19540
十六条	-19541
参谋长	-19542
想一想	-19543
所学的	-19544
支持和	-19545
改变的	-19546
易引起	-19547
社科院	-19548
苏维埃	-19549
还发现	-19550
闻名的	-19551
高校的	-19552
可以获得	-19553
大大增加	-19554
是不可能	-19555
权利义务	-19556
甚至出现	-19557
可能会引起	-19558
神经系统的	-19559
不从	-19560
不讲	-19561
主旨	-19562
五帝	-19563
亚当	-19564
从头	-19565
刻有	-19566
嘲笑	-19567
张口	-19568
流经	-19569
甘草	-19570
缝隙	-19571
美景	-19572
而未	-19573
能与	-19574
芬奇	-19575
证人	-19576
诗作	-19577
阅历	-19578
▁at	-19579
吃东西	-19580
存在了	-19581
就一定	-19582
携带者	-19583
等重要	-19584
世界一流	-19585
人工授精	-19586
比较严重	-19587
相当大的	-19588
国内生产总值	-19589
单向	-19590
叶面	-19591
多岁	-19592
大户	-19593
奶水	-19594
应答	-19595
气球	-19596
沙龙	-19597
涨跌	-19598
苛刻	-19599
输精	-19600
露天	-19601
▁不少	-19602
中学的	-19603
为原料	-19604
九一八	-19605
你应该	-19606
和利用	-19607
的一组	-19608
的真正	-19609
转折点	-19610
▁des	-19611
已经达到	-19612
得出结论	-19613
教学效果	-19614
教学方式	-19615
这个话题	-19616
素质教育的	-19617
从何	-19618
任性	-19619
友们	-19620
射击	-19621
平米	-19622
打骂	-19623
执教	-19624
抢夺	-19625
散布	-19626
日程	-19627
氏的	-19628
莫高	-19629
介子推	-19630
受访者	-19631
就业率	-19632
广阔的	-19633
性接触	-19634
爆发后	-19635
的大力	-19636
的性能	-19637
确诊为	-19638
重阳节	-19639
阵发性	-19640
儒家思想	-19641
关注的是	-19642
监控系统	-19643
还有其他	-19644
▁blic	-19645
科学与技术	-19646
九州	-19647
仅占	-19648
刺绣	-19649
工科	-19650
急速	-19651
承重	-19652
摩尔	-19653
昭王	-19654
紧凑	-19655
近百	-19656
都为	-19657
都曾	-19658
镇守	-19659
鲤鱼	-19660
let	-19661
▁想要	-19662
▁据悉	-19663
元素的	-19664
准备的	-19665
可以做	-19666
和健康	-19667
大约是	-19668
已达到	-19669
扩大了	-19670
日新月	-19671
是日本	-19672
最好在	-19673
林则徐	-19674
仅供参考	-19675
周围环境	-19676
已经进入	-19677
有的时候	-19678
有着密切	-19679
着自己的	-19680
▁摄	-19681
一的	-19682
儿的	-19683
冷战	-19684
口臭	-19685
夯实	-19686
当上	-19687
形色	-19688
惨重	-19689
按其	-19690
来往	-19691
注视	-19692
督导	-19693
诊所	-19694
这款	-19695
韵味	-19696
高额	-19697
一方的	-19698
不均衡	-19699
习惯的	-19700
分钟内	-19701
原始的	-19702
古人的	-19703
生产率	-19704
的行业	-19705
维持在	-19706
ache	-19707
乙型肝炎	-19708
分析一下	-19709
浙江大学	-19710
高速增长	-19711
)=	-19712
一听	-19713
公历	-19714
双腿	-19715
古琴	-19716
多米	-19717
山石	-19718
微妙	-19719
感激	-19720
糖果	-19721
髓核	-19722
不建议	-19723
冷空气	-19724
猕猴桃	-19725
的诞生	-19726
过渡到	-19727
也是中国	-19728
并不知道	-19729
是错误的	-19730
月经来潮	-19731
疾病预防	-19732
土司	-19733
整改	-19734
新浪	-19735
来愈	-19736
计时	-19737
镇江	-19738
阴谋	-19739
ict	-19740
乳头瘤	-19741
如果想	-19742
是提高	-19743
的传播	-19744
细胞瘤	-19745
要经过	-19746
中医认为	-19747
事实证明	-19748
创造一个	-19749
就会引起	-19750
建筑物的	-19751
温室气体	-19752
股权转让	-19753
奠定了基础	-19754
结合在一起	-19755
很长一段时间	-19756
三餐	-19757
上线	-19758
亡国	-19759
估价	-19760
划定	-19761
心血	-19762
接班	-19763
根深	-19764
烧烤	-19765
珍爱	-19766
祥地	-19767
觉罗	-19768
银屑	-19769
为社会	-19770
企业中	-19771
养成了	-19772
喜马拉	-19773
巴比伦	-19774
纺织品	-19775
请大家	-19776
隋文帝	-19777
不会出现	-19778
呼吸暂停	-19779
心理素质	-19780
nt	-19781
之神	-19782
低龄	-19783
全天	-19784
四百	-19785
她是	-19786
工信	-19787
新规	-19788
映射	-19789
欣喜	-19790
比值	-19791
活化	-19792
盎司	-19793
经久	-19794
耶律	-19795
艰巨	-19796
表决	-19797
谷雨	-19798
较晚	-19799
雪芹	-19800
高楼	-19801
黄山	-19802
一小时	-19803
不成熟	-19804
后发现	-19805
含金量	-19806
应避免	-19807
所有者	-19808
热衷于	-19809
高峰期	-19810
国土资源	-19811
很多朋友	-19812
的影响下	-19813
不死	-19814
会是	-19815
偏爱	-19816
容忍	-19817
将以	-19818
尼克	-19819
应将	-19820
愈加	-19821
沫若	-19822
火的	-19823
萨斯	-19824
该书	-19825
迈进	-19826
驳回	-19827
▁产品	-19828
▁创新	-19829
▁新华	-19830
主要从	-19831
会通过	-19832
动脉瘤	-19833
发展史	-19834
国外的	-19835
岁儿童	-19836
年平均	-19837
把他们	-19838
能做到	-19839
能帮助	-19840
虽然有	-19841
表达的	-19842
转载请	-19843
陶行知	-19844
少年儿童	-19845
年代以来	-19846
康熙皇帝	-19847
▁server	-19848
乐园	-19849
也说	-19850
事关	-19851
体操	-19852
全都	-19853
发觉	-19854
屁股	-19855
庄稼	-19856
撤离	-19857
新奇	-19858
流淌	-19859
液的	-19860
滚滚	-19861
角的	-19862
赠送	-19863
队列	-19864
颠倒	-19865
")。	-19866
";"	-19867
its	-19868
▁参考	-19869
也具有	-19870
大教堂	-19871
的命运	-19872
的小说	-19873
一级学科	-19874
目前国内	-19875
许多国家	-19876
锻炼身体	-19877
▁university	-19878
sw	-19879
九个	-19880
刘裕	-19881
周礼	-19882
地向	-19883
天命	-19884
实则	-19885
延年	-19886
战时	-19887
接轨	-19888
有声	-19889
笼罩	-19890
肉体	-19891
迎合	-19892
pvc	-19893
切入点	-19894
的主动	-19895
要实现	-19896
诞生于	-19897
书法艺术	-19898
喜马拉雅	-19899
怀孕期间	-19900
淋巴结肿大	-19901
目的是为了	-19902
自己的情绪	-19903
与被	-19904
但与	-19905
可可	-19906
夏至	-19907
大病	-19908
完工	-19909
慕容	-19910
慢跑	-19911
批改	-19912
比对	-19913
游人	-19914
的了	-19915
眼看	-19916
禁用	-19917
致残	-19918
谋求	-19919
贮藏	-19920
长到	-19921
难忘	-19922
龙山	-19923
▁cm	-19924
▁欢迎	-19925
一大批	-19926
三方面	-19927
定义的	-19928
摄影师	-19929
教育者	-19930
最直接	-19931
来控制	-19932
的主观	-19933
的伟大	-19934
的数字	-19935
防腐剂	-19936
霍姆林	-19937
不能完全	-19938
学习内容	-19939
思想品德	-19940
思想道德	-19941
这种行为	-19942
产业的发展	-19943
国务院批准	-19944
结构性改革	-19945
争霸	-19946
京东	-19947
体弱	-19948
出众	-19949
分清	-19950
史前	-19951
的铁	-19952
砂浆	-19953
称霸	-19954
穿上	-19955
粘贴	-19956
赵高	-19957
雇员	-19958
面条	-19959
▁ro	-19960
▁进行	-19961
不正当	-19962
保留了	-19963
听到的	-19964
往往在	-19965
案件中	-19966
癫痫病	-19967
的商品	-19968
的效率	-19969
的运用	-19970
运用于	-19971
这表明	-19972
什么问题	-19973
出国留学	-19974
名副其实	-19975
图片来源	-19976
学习效率	-19977
家喻户晓	-19978
强制执行	-19979
明清时期	-19980
关心的问题	-19981
一派	-19982
下有	-19983
产道	-19984
享年	-19985
午餐	-19986
半天	-19987
反叛	-19988
吸食	-19989
异地	-19990
引申	-19991
支队	-19992
盗墓	-19993
立在	-19994
紫檀	-19995
纲目	-19996
美育	-19997
脂质	-19998
英寸	-19999
衰败	-20000
试纸	-20001
采收	-20002
可降低	-20003
在这场	-20004
才能使	-20005
来达到	-20006
的节日	-20007
见证了	-20008
也是可以	-20009
建筑材料	-20010
良性肿瘤	-20011
呼吸道疾病	-20012
新冠肺炎疫情	-20013
national	-20014
不免	-20015
主讲	-20016
于人	-20017
县人	-20018
又说	-20019
国号	-20020
块钱	-20021
如实	-20022
宽阔	-20023
盯着	-20024
睡着	-20025
禁食	-20026
远期	-20027
退税	-20028
陕北	-20029
鼓楼	-20030
mpa	-20031
▁加强	-20032
你怎么	-20033
化管理	-20034
历史和	-20035
和市场	-20036
的主力	-20037
的大臣	-20038
的策略	-20039
第四次	-20040
合作伙伴	-20041
并不是说	-20042
很容易被	-20043
是否具有	-20044
暴饮暴食	-20045
法律知识	-20046
物业管理	-20047
二代	-20048
传言	-20049
佛学	-20050
则要	-20051
千人	-20052
吕后	-20053
年终	-20054
手部	-20055
无权	-20056
权衡	-20057
正向	-20058
清凉	-20059
珍宝	-20060
线圈	-20061
裂纹	-20062
辨析	-20063
迟迟	-20064
侵略者	-20065
出版了	-20066
分析与	-20067
把它们	-20068
最关键	-20069
的首要	-20070
说一说	-20071
东北地区	-20072
实事求是	-20073
迅猛发展	-20074
这些东西	-20075
逻辑思维	-20076
▁另一方面	-20077
下发	-20078
不入	-20079
之和	-20080
冲锋	-20081
可疑	-20082
和低	-20083
就拿	-20084
放进	-20085
柏拉	-20086
点缀	-20087
知县	-20088
脑子	-20089
谎言	-20090
避暑	-20091
隶书	-20092
iot	-20093
争议的	-20094
会形成	-20095
内在的	-20096
可造成	-20097
学期的	-20098
日均线	-20099
概括为	-20100
莫高窟	-20101
西北部	-20102
颁发的	-20103
可以得到	-20104
可能造成	-20105
对外贸易	-20106
影响力的	-20107
[...]
